<unk>	0
<s>	0
</s>	0
[PAD]	0
[UNK]	0
[CLS]	0
[SEP]	0
[MASK]	0
.	-3.21797
의	-4.39026
을	-4.63564
에	-4.64102
▁	-4.70546
는	-4.71718
이	-4.82229
를	-4.88376
가	-4.9597
은	-5.09873
,	-5.26998
▁있다	-5.30453
로	-5.32211
도	-5.3243
일	-5.33869
▁수	-5.34506
과	-5.37299
에서	-5.49273
와	-5.60091
고	-5.66914
년	-5.73908
으로	-5.80452
한	-5.83039
인	-5.83253
▁이	-5.84343
▁등	-5.91304
’	-5.93215
▁‘	-5.96591
▁1	-6.00757
▁있는	-6.01548
·	-6.06514
만	-6.15404
월	-6.1593
”	-6.16135
▁“	-6.1752
▁2	-6.24898
▁3	-6.25225
▁한	-6.29594
▁기자	-6.31155
다	-6.32923
하고	-6.35603
하는	-6.36841
해	-6.41258
지	-6.4656
▁전	-6.47058
기	-6.48618
할	-6.50992
▁것으로	-6.56622
▁4	-6.57932
▁5	-6.61082
대	-6.62811
▁그	-6.70331
▁통해	-6.70932
이다	-6.71811
▁대한	-6.73666
▁및	-6.75432
했다	-6.78113
나	-6.79681
며	-6.80222
▁위해	-6.82086
시	-6.82165
)	-6.83165
▁서울	-6.83923
자	-6.85273
▁10	-6.85316
▁중	-6.86343
서	-6.86693
▁사진	-6.92396
까지	-6.94759
2	-6.94945
▁밝혔다	-6.95938
(	-6.9693
▁6	-6.9756
▁말했다	-6.97824
▁지난	-6.99968
1	-7.01928
▁더	-7.03961
▁제	-7.05262
▁함께	-7.06033
▁것	-7.07387
개	-7.0807
된	-7.09805
com	-7.10633
면	-7.15293
▁또	-7.17255
▁7	-7.19011
원	-7.19043
사	-7.19245
수	-7.19463
▁위한	-7.19745
들이	-7.21296
에게	-7.22529
▁한다	-7.23472
▁8	-7.24811
성	-7.25418
주	-7.25768
▁같은	-7.25986
▁이번	-7.26454
▁있다고	-7.26707
▁할	-7.27389
▁하고	-7.27654
명	-7.28063
적	-7.29177
차	-7.29591
▁때문에	-7.29687
스	-7.30136
게	-7.30174
▁한국	-7.30408
▁했다	-7.30592
▁때	-7.30964
▁하는	-7.31771
▁안	-7.31902
▁김	-7.32571
▁9	-7.32982
진	-7.33213
하게	-7.33769
▁뉴시스	-7.33952
▁후	-7.33992
()	-7.34783
▁등을	-7.34796
▁것이	-7.36578
▁열린	-7.39145
▁두	-7.39632
한다	-7.40129
라고	-7.40214
이라고	-7.41032
▁가장	-7.41108
▁대해	-7.41174
▁이후	-7.41454
▁20	-7.41587
▁다른	-7.42248
장	-7.42411
▁내	-7.4278
동	-7.43589
리	-7.43651
▁박	-7.44019
에는	-7.44581
이나	-7.44777
▁국내	-7.45063
▁경우	-7.45236
▁것이다	-7.45318
▁12	-7.455
▁게임	-7.45993
▁다양한	-7.46014
▁것은	-7.46593
조	-7.46818
천	-7.47434
3	-7.47475
라는	-7.47863
▁따라	-7.47986
상	-7.47999
▁오후	-7.48422
어	-7.48545
선	-7.50975
▁시	-7.5167
▁오전	-7.51892
화	-7.5212
▁있습니다	-7.52259
▁지난해	-7.52852
라	-7.53636
하기	-7.54397
제	-7.54724
▁이날	-7.54737
형	-7.55159
▁뉴스	-7.55183
부	-7.55863
▁미국	-7.55985
▁또는	-7.56044
'	-7.56554
야	-7.56907
▁'	-7.56995
하지	-7.57332
에서는	-7.57384
세	-7.57966
정	-7.58124
▁11	-7.58612
▁큰	-7.59523
▁특히	-7.6035
아	-7.60822
비	-7.61992
전	-7.62738
▁관련	-7.62877
용	-7.6371
▁30	-7.64746
면서	-7.64947
▁현재	-7.65699
▁것을	-7.66832
▁중국	-7.66953
▁하지만	-7.66966
▁많은	-7.67164
▁뒤	-7.67267
회	-7.67567
▁영상	-7.67592
호	-7.67638
여	-7.67998
▁총	-7.68441
하며	-7.68578
억	-7.688
▁이상	-7.69234
하여	-7.69287
▁최근	-7.69526
보다	-7.70399
...	-7.70673
▁모두	-7.70787
▁주	-7.71499
▁"	-7.71568
구	-7.7159
▁정	-7.71634
미	-7.71659
입니다	-7.7182
▁이어	-7.72495
▁그는	-7.72583
▁된다	-7.7273
▁세계	-7.7315
▁모바일	-7.74572
적인	-7.74588
5	-7.74832
우	-7.75188
▁LG	-7.75196
신	-7.75494
▁적극	-7.76561
위	-7.76947
▁이런	-7.77187
식	-7.77453
▁우리	-7.78079
6	-7.78781
▁다	-7.79511
중	-7.79809
부터	-7.7989
4	-7.79917
▁가운데	-7.8087
드	-7.81398
▁신	-7.81497
분	-7.81724
▁15	-7.82201
▁서비스	-7.82375
▁원	-7.8243
▁아니라	-7.82512
m	-7.82691
던	-7.82828
▁또한	-7.82849
▁오	-7.83241
▁고	-7.83425
치	-7.83525
▁없는	-7.83997
7	-7.84246
▁약	-7.8451
▁유	-7.84907
이라는	-7.84952
▁올해	-7.84969
▁해	-7.8499
▁될	-7.85206
소	-7.85646
들은	-7.86344
산	-7.87055
▁대	-7.87111
▁게	-7.87116
▁따르면	-7.87163
▁대표	-7.8742
하면서	-7.87447
트	-7.8751
▁새누리당	-7.88002
kr	-7.88581
▁등의	-7.88821
해야	-7.88871
▁있도록	-7.89296
▁새로운	-7.89428
들을	-7.89469
▁잘	-7.89808
▁모든	-7.89911
▁영상을	-7.9001
▁독자	-7.90164
되는	-7.90535
▁사	-7.90573
S	-7.90702
당	-7.91609
▁비	-7.91711
▁그러나	-7.91937
▁공감	-7.91965
▁다시	-7.92893
▁미	-7.92971
▁지	-7.93074
▁일본	-7.94272
하면	-7.9445
phooewsis	-7.94848
▁데	-7.94856
▁제보	-7.94967
오	-7.95138
▁이를	-7.95414
▁바	-7.9562
▁일	-7.95909
될	-7.96111
마	-7.96301
▁여러분의	-7.96335
요	-7.96566
▁한편	-7.96879
보	-7.97455
언론	-7.98082
▁기다립니다	-7.98205
G	-7.98528
▁조	-7.98626
▁A	-7.98667
▁첫	-7.98801
▁말	-7.98858
▁있어	-7.98903
▁소중한	-7.98931
▁예정이다	-7.99167
▁최대	-7.9971
▁가	-7.99758
▁제공	-8.00149
▁오는	-8.00156
▁서	-8.01341
co	-8.01345
▁아	-8.01363
▁당시	-8.01755
니	-8.01763
▁18	-8.01958
▁관계자는	-8.02078
▁것이라고	-8.02155
들의	-8.02686
하	-8.03086
▁지역	-8.03181
▁그리고	-8.03298
▁많이	-8.03676
▁판단되는	-8.03745
▁제보받습니다	-8.04054
▁보내주시면	-8.04111
▁가치나	-8.0419
▁0272	-8.04263
▁화제성이	-8.04268
▁반영하겠습니다	-8.04294
17470	-8.04301
▁사진영상부	-8.04305
8	-8.04882
▁국회	-8.05244
▁100	-8.05647
▁16	-8.05684
▁대표는	-8.05797
경	-8.05838
▁개발	-8.0619
▁없다	-8.06243
에도	-8.0628
▁글로벌	-8.06669
배	-8.06928
▁SK	-8.07062
"	-8.07375
▁동안	-8.07468
석	-8.07583
일까지	-8.07769
▁문	-8.07967
재	-8.07991
▁성	-8.08062
▁13	-8.08093
▁서울연합뉴스	-8.08237
▁등이	-8.08422
▁2015	-8.08491
▁장	-8.08975
▁직접	-8.09038
단	-8.09098
영	-8.09163
현	-8.09177
▁있으며	-8.09424
▁14	-8.09558
▁재	-8.09787
연	-8.10185
▁이에	-8.10531
▁당	-8.10917
됐다	-8.11584
하였다	-8.12092
▁높은	-8.12383
▁강	-8.12708
▁볼	-8.1277
▁간	-8.12902
돼	-8.12945
종	-8.12959
군	-8.13141
▁세	-8.13346
▁있다는	-8.14312
되고	-8.144
모	-8.14717
권	-8.14985
▁시장	-8.15061
▁않고	-8.15725
▁구	-8.15768
▁기존	-8.15784
민	-8.15923
간	-8.16409
들	-8.16514
▁기술	-8.16531
유	-8.16669
▁r	-8.17071
실	-8.17128
데	-8.17342
▁사업	-8.1772
급	-8.17861
▁17	-8.1802
▁자	-8.1813
▁있을	-8.18363
일부터	-8.18738
▁양	-8.18874
▁주요	-8.19184
타	-8.19697
처럼	-8.20364
지만	-8.20462
관	-8.20837
파	-8.21074
▁하	-8.21291
▁있었다	-8.21379
▁모	-8.21833
▁부	-8.21843
했습니다	-8.22245
계	-8.22509
만원	-8.22586
▁50	-8.22844
국	-8.23008
되어	-8.23431
적으로	-8.23453
9	-8.23806
▁보고	-8.23951
▁기업	-8.24231
▁기	-8.24429
▁있고	-8.24644
질	-8.24722
▁지원	-8.2508
무	-8.25175
▁KT	-8.25185
히	-8.2588
▁초	-8.26007
노	-8.26131
▁서비스를	-8.26352
문	-8.26534
▁각	-8.26822
▁19	-8.26854
▁메르스	-8.27164
▁않은	-8.27251
▁25	-8.27321
▁여러	-8.27509
법	-8.27602
▁어떤	-8.27688
▁설명했다	-8.28248
했던	-8.28727
▁건	-8.2918
▁된	-8.29219
▁없이	-8.2948
▁역시	-8.29847
란	-8.30367
공	-8.30525
▁물론	-8.3054
▁정부	-8.31196
▁계획이다	-8.31343
방	-8.31592
▁반	-8.31612
▁자신의	-8.31861
억원	-8.3234
토	-8.32345
▁도	-8.32409
▁24	-8.32463
▁★	-8.32644
강	-8.32714
▁경제	-8.32906
되었다	-8.3296
▁달	-8.3346
▁스마트폰	-8.3351
안	-8.33576
▁마	-8.33604
▁그런	-8.34222
병	-8.34515
▁일부	-8.34583
▁선	-8.34688
포	-8.34778
▁나	-8.34862
했고	-8.35181
▁알	-8.35184
된다	-8.35204
▁무	-8.35274
▁전국	-8.35422
▁23	-8.35663
▁소	-8.35726
내	-8.36474
ewsis	-8.36572
▁노	-8.36614
양	-8.36872
▁더욱	-8.37569
D	-8.37623
▁만큼	-8.38218
▁받고	-8.38292
▁공식	-8.38371
즈	-8.38673
물	-8.38876
▁해외	-8.39102
디	-8.39111
▁좋은	-8.39124
건	-8.39195
▁의원	-8.39484
-	-8.39495
초	-8.39677
린	-8.39861
▁결과	-8.39869
▁추가	-8.39939
코	-8.40563
▁사용	-8.40577
명이	-8.40766
▁앞서	-8.40871
엔	-8.40963
▁투자	-8.4115
티	-8.41366
였다	-8.41374
▁박근혜	-8.41545
번	-8.41613
▁S	-8.41748
▁연	-8.41855
시간	-8.42001
▁의원은	-8.4212
준	-8.42133
▁운영	-8.4214
▁국가	-8.42166
▁바로	-8.42201
청	-8.42233
▁때문이다	-8.42309
▁배	-8.42619
▁해당	-8.42622
이며	-8.42644
▁대비	-8.43236
▁이미	-8.44364
▁교육	-8.44478
▁경기	-8.44559
온	-8.44609
태	-8.44853
▁부산	-8.45109
▁출시	-8.45287
▁리	-8.45688
A	-8.4576
발	-8.45819
▁22	-8.45855
s	-8.45866
▁피	-8.45913
▁21	-8.45935
▁△	-8.46123
▁TV	-8.4619
희	-8.46262
▁앵커	-8.46659
▁되는	-8.46662
▁크게	-8.46787
▁최	-8.46895
프	-8.47363
▁따른	-8.47529
바	-8.47568
카	-8.4773
더	-8.48015
이었다	-8.48597
▁각각	-8.48755
▁단	-8.48862
러	-8.48877
점	-8.48928
▁북한	-8.48998
▁보인다	-8.4933
피	-8.49494
▁대상으로	-8.49789
▁B	-8.49795
▁보면	-8.49799
▁강조했다	-8.49829
박	-8.49923
해서	-8.50092
▁온라인	-8.50162
▁상	-8.50194
▁계속	-8.50585
▁보	-8.50595
▁않는	-8.50844
▁판매	-8.50856
▁오늘	-8.5096
▁물	-8.50993
거나	-8.50995
▁2013	-8.51052
▁저	-8.51219
C	-8.51247
철	-8.51278
루	-8.51316
▁동	-8.51407
▁불	-8.51542
▁대통령	-8.51874
▁우	-8.51877
▁군	-8.52092
▁국제	-8.52422
체	-8.52626
역	-8.52695
▁결국	-8.52824
이라며	-8.52946
학	-8.53379
▁못	-8.53505
▁40	-8.53749
▁지금	-8.53751
▁진행	-8.53833
에서도	-8.54062
▁새정치민주연합	-8.54064
▁본	-8.54082
▁최고	-8.54117
▁온	-8.54166
▁신규	-8.54181
르	-8.54273
▁26	-8.54339
▁제품	-8.54481
운	-8.54622
거	-8.54753
▁다음	-8.5477
▁27	-8.54772
▁어떻게	-8.54797
▁새	-8.54871
레	-8.55052
▁황	-8.55487
▁어	-8.55646
층	-8.55765
▁등에	-8.55772
10	-8.56043
길	-8.56072
▁대표가	-8.56104
www	-8.56585
하다	-8.56892
▁이는	-8.57091
려	-8.57149
▁한다고	-8.57211
▁연구	-8.57272
그	-8.5728
별	-8.57574
▁백	-8.57912
▁28	-8.57955
▁인터넷	-8.5799
네	-8.58133
▁전체	-8.58148
▁정도	-8.58548
▁날	-8.58823
▁있지만	-8.589
금	-8.58916
근	-8.59126
▁(	-8.59281
▁갤럭시	-8.59466
▁위	-8.59732
라며	-8.60114
▁받은	-8.60166
교	-8.60182
▁차	-8.60184
반	-8.60369
▁데이터	-8.60419
년에	-8.60817
후	-8.60876
▁문제	-8.60883
▁타	-8.61142
크	-8.61165
▁코	-8.61167
▁전했다	-8.61487
▁산	-8.61851
▁남	-8.61953
▁아닌	-8.621
▁올	-8.6224
는데	-8.62261
▁이용	-8.62281
▁있게	-8.62306
▁손	-8.62905
개월	-8.63009
▁임	-8.63232
▁스	-8.63239
남	-8.63531
▁국민	-8.63636
▁것도	-8.63793
▁G	-8.6382
▁여성	-8.63851
▁이렇게	-8.6386
▁번	-8.6387
▁29	-8.63959
▁되었다	-8.64089
▁c	-8.64271
승	-8.64432
▁먼저	-8.64557
▁수도	-8.64641
심	-8.64981
▁경기도	-8.65236
환	-8.65236
▁호	-8.65327
▁됐다	-8.65492
▁방	-8.65719
▁줄	-8.65866
창	-8.66037
▁영화	-8.66206
▁매우	-8.66326
통	-8.66426
▁채	-8.66439
두	-8.66442
했다고	-8.66748
▁일반	-8.66879
판	-8.6708
▁2014	-8.67466
B	-8.6763
▁지난달	-8.68044
▁대구	-8.682
살	-8.68218
▁있는데	-8.68244
▁공	-8.68302
임	-8.6852
M	-8.68576
▁가능하다	-8.68614
▁명	-8.68787
▁않았다	-8.68841
▁진	-8.69057
▁방송	-8.69112
▁들어	-8.69277
▁평균	-8.69631
▁아이폰	-8.69659
키	-8.69976
▁외	-8.70076
▁관리	-8.70128
▁같이	-8.70234
▁정치	-8.70311
▁홍	-8.70419
▁여의도	-8.70484
▁필요한	-8.7053
▁앱	-8.70536
▁등으로	-8.70587
▁전문	-8.70668
▁경향	-8.708
▁이미지	-8.70945
림	-8.71456
생	-8.71495
▁속	-8.71599
기를	-8.71622
▁가지	-8.71727
▁카	-8.7173
광	-8.71851
▁윤	-8.71915
▁콘텐츠	-8.7194
되지	-8.7209
▁공동	-8.72332
▁앞으로	-8.72423
▁중인	-8.72818
▁개	-8.72832
저	-8.73009
▁현	-8.73037
백	-8.73068
▁문재인	-8.73314
▁송	-8.73355
20	-8.73425
▁기준	-8.73594
▁보안	-8.73646
▁갖고	-8.74004
30	-8.74179
▁광주	-8.74268
▁추진	-8.74586
▁사회	-8.74691
감	-8.74699
km	-8.74735
약	-8.74886
K	-8.74969
▁경	-8.75024
▁실제	-8.7506
▁정보	-8.75078
▁통합	-8.75132
▁기술을	-8.75193
▁2016	-8.75207
▁공개	-8.7532
규	-8.75509
▁기간	-8.7572
▁대통령이	-8.75841
▁가능성이	-8.75911
증	-8.75936
▁브랜드	-8.76005
▁가지고	-8.76048
등	-8.76597
했지만	-8.76622
▁핵심	-8.7682
▁인터뷰	-8.76931
▁발	-8.77062
▁사실	-8.77098
대표	-8.7735
▁그의	-8.7744
▁매	-8.77846
명을	-8.779
었다	-8.78075
터	-8.78137
분기	-8.78283
▁만에	-8.78303
▁각종	-8.78419
▁달리	-8.78538
류	-8.78555
▁이러한	-8.78556
순	-8.78609
▁C	-8.7868
▁문제가	-8.78876
▁2012	-8.7902
▁삼	-8.79158
▁K	-8.79412
▁만들어	-8.79835
▁생산	-8.79849
▁다만	-8.79867
년부터	-8.80059
▁처음	-8.80114
▁산업	-8.80211
▁난	-8.80302
▁고객	-8.80381
들과	-8.80554
▁IT	-8.80555
▁가능한	-8.80727
직	-8.81213
TV	-8.81228
▁강화	-8.81315
▁인기	-8.81343
▁사람이	-8.81549
▁확대	-8.81582
▁역할을	-8.81661
복	-8.817
년간	-8.81752
▁T	-8.81826
▁보다	-8.8183
▁삼성	-8.81846
▁어느	-8.81929
했으며	-8.82096
▁70	-8.82286
▁네	-8.82375
▁동시에	-8.82436
▁모습을	-8.8246
T	-8.82536
하거나	-8.82711
▁스마트	-8.82918
▁인	-8.8298
▁삼성전자	-8.83003
래	-8.8318
▁하루	-8.8353
명의	-8.83747
▁분	-8.83782
▁정부가	-8.83784
씨	-8.83822
▁받을	-8.84018
▁대통령은	-8.8416
▁하지	-8.84184
▁기능을	-8.84189
합니다	-8.84206
▁심	-8.84299
▁있기	-8.84388
▁후보	-8.84719
▁알려졌다	-8.84837
론	-8.84842
▁김무성	-8.84903
▁중요한	-8.8501
각	-8.85015
▁국회에서	-8.85017
로부터	-8.85191
ᆞ	-8.85301
P	-8.85403
▁D	-8.85442
▁파	-8.85457
▁열	-8.85556
▁의원이	-8.85559
매	-8.8564
▁핫	-8.8569
습니다	-8.85806
▁인해	-8.85902
▁시간	-8.86046
산업	-8.86363
▁조사	-8.86617
▁성장	-8.86651
▁포	-8.86652
집	-8.86693
▁한다는	-8.86708
▁중심으로	-8.86916
▁정책	-8.86926
▁비해	-8.87169
▁그런데	-8.87496
음	-8.87916
▁자동차	-8.87948
평	-8.87988
봉	-8.88186
▁시스템	-8.88312
츠	-8.88578
열	-8.88581
▁하나	-8.88745
버	-8.88838
목	-8.88954
▁문화	-8.8902
▁영	-8.89068
▁정보를	-8.89232
지는	-8.89488
▁되고	-8.89516
▁제공한다	-8.89535
▁세상에	-8.89592
▁정도로	-8.89674
24	-8.89768
▁변	-8.89787
▁받았다	-8.898
대로	-8.89819
▁대신	-8.89854
▁아직	-8.90008
브	-8.90022
하던	-8.9004
▁공격	-8.90073
▁만나	-8.90074
▁향후	-8.90468
▁총선	-8.90472
▁PC	-8.90499
▁대한민국	-8.90613
▁라	-8.90627
행	-8.90731
▁60	-8.90737
▁개인	-8.90783
▁거	-8.90841
김	-8.90904
▁편	-8.90918
▁만	-8.9113
▁몇	-8.91183
▁포토	-8.9128
투	-8.91334
▁역	-8.91374
▁비롯해	-8.91418
▁커뮤니티	-8.91546
들에게	-8.91619
망	-8.91629
▁가진	-8.9164
▁매출	-8.91683
량	-8.91715
▁통한	-8.91871
성을	-8.91871
개의	-8.91942
▁이벤트	-8.91942
▁거의	-8.91967
하기로	-8.91971
▁금	-8.92085
항	-8.92132
▁받아	-8.92213
▁허	-8.92275
▁오늘의	-8.92304
▁예	-8.92357
인데	-8.92599
▁평가	-8.92639
▁천	-8.92726
▁방문	-8.92767
▁우선	-8.92859
설	-8.92861
▁협력	-8.92988
▁대전	-8.9303
▁있던	-8.93074
한다는	-8.93097
력	-8.93165
관리	-8.93224
▁생활	-8.9331
▁영향을	-8.93317
▁애	-8.93386
난	-8.93429
불	-8.93441
랑	-8.93512
▁아니다	-8.93663
왕	-8.93713
▁활동	-8.93759
▁선거	-8.93812
표	-8.93883
▁SNS	-8.9395
▁교수	-8.94051
▁31	-8.94099
지역	-8.94324
▁AI	-8.94398
▁하면	-8.94404
▁반면	-8.9445
X	-8.94479
▁발생	-8.94596
▁사고	-8.94672
덕	-8.94707
▁과정에서	-8.94739
▁만든	-8.94773
▁좀	-8.94989
▁여	-8.95048
범	-8.95132
▁최종	-8.952
▁청와대	-8.95218
▁두고	-8.95487
▁의해	-8.95526
▁점	-8.95563
곡	-8.95657
▁분석	-8.95759
▁반대	-8.95829
져	-8.95843
위를	-8.95876
기도	-8.95894
한다고	-8.9616
▁회사	-8.9628
연합뉴스	-8.96361
▁제대로	-8.96409
▁광고	-8.96587
▁그래서	-8.96608
▁개선	-8.96819
으며	-8.96896
장을	-8.96898
▁발전	-8.96952
▁설	-8.97
▁대학	-8.971
▁영역	-8.97237
▁실	-8.97264
▁이와	-8.97301
▁걸	-8.97496
뉴스	-8.97605
사업	-8.97632
▁그대로	-8.97688
▁구글	-8.97787
▁M	-8.97792
▁도입	-8.9781
▁그동안	-8.98091
▁문제를	-8.98285
업	-8.98523
센터	-8.98553
▁서울뉴시스	-8.98574
▁살	-8.98673
▁전략	-8.98702
▁발표	-8.98798
▁있다며	-8.98928
▁정부는	-8.98944
▁해야	-8.98968
교육	-8.99043
▁아이	-8.99204
▁참여	-8.99589
▁나타났다	-8.99724
색	-8.998
이고	-8.99842
▁아파트	-8.99863
▁집중	-8.99908
▁처리	-8.99944
쿠	-9.00068
▁통신	-9.00116
씨는	-9.00168
▁번째	-9.00188
외	-9.00232
▁자기	-9.00242
▁공급	-9.00324
▁적	-9.0034
▁2017	-9.00463
령	-9.0051
이라	-9.00516
기업	-9.00541
▁맞아	-9.00549
게임	-9.00619
▁현장	-9.00799
▁P	-9.00813
▁안전	-9.00938
▁구매	-9.00948
▁유럽	-9.01315
▁권	-9.01316
▁인천	-9.01401
▁찾아	-9.01403
▁대형	-9.01513
▁화	-9.01596
▁내년	-9.01638
or	-9.01851
퍼	-9.0198
▁성공	-9.02064
▁시즌	-9.02226
▁시작	-9.02383
되면서	-9.02413
▁대통령의	-9.02512
암	-9.02538
▁쉽게	-9.0256
▁이제	-9.0264
▁수출	-9.02709
▁합니다	-9.02913
본	-9.0293
▁금융	-9.02969
이자	-9.0313
워	-9.03144
▁캐릭터	-9.03163
▁플랫폼	-9.03189
▁갈	-9.03212
예	-9.03245
▁미래	-9.03342
▁클라우드	-9.03342
▁정부의	-9.03428
탄	-9.03968
▁중이다	-9.0402
>	-9.04178
▁북한의	-9.04288
▁사용할	-9.04289
속	-9.04327
▁않을	-9.04372
▁영국	-9.04566
훈	-9.04621
▁집	-9.04628
▁일이	-9.04854
▁설치	-9.04916
▁독일	-9.05032
▁행사	-9.05086
▁제공하는	-9.05169
전자	-9.05263
▁감	-9.05342
▁이동	-9.05393
기술	-9.05483
너	-9.05525
▁치	-9.05529
릴	-9.05639
락	-9.05737
▁대해서는	-9.05918
▁관한	-9.05952
▁서로	-9.06343
▁덧붙였다	-9.06353
달	-9.06471
▁이상의	-9.06501
▁◇	-9.06569
▁음악	-9.0671
립	-9.0691
▁비롯한	-9.06917
▁되어	-9.07103
/	-9.07109
▁순	-9.07126
서비스	-9.07242
▁적용	-9.07285
▁결정	-9.0732
▁회장	-9.07685
절	-9.0775
▁학교	-9.07771
▁너무	-9.07797
사진	-9.07834
▁기본	-9.0791
e	-9.07942
R	-9.07993
▁거쳐	-9.08006
하기도	-9.0815
▁관심을	-9.0823
▁계획	-9.08272
에선	-9.08324
▁월	-9.08399
▁전용	-9.08512
W	-9.08603
▁디지털	-9.08631
r	-9.08904
▁앞두고	-9.09109
),	-9.09283
▁F	-9.09468
▁애플	-9.09619
팀	-9.09624
▁서울뉴스	-9.09626
▁에너지	-9.09884
▁세월호	-9.10337
▁제작	-9.10342
▁2018	-9.10381
▁않는다	-9.10609
▁공천	-9.10616
▁주로	-9.10617
문화	-9.10621
▁측은	-9.10624
▁자체	-9.10644
▁최초로	-9.10673
▁확인	-9.10678
▁들	-9.10731
▁건설	-9.10763
하지만	-9.10816
▁환경	-9.10967
▁무단전재	-9.11006
▁같다	-9.11107
▁왜	-9.11112
▁제품을	-9.11334
▁2011	-9.11501
▁확인할	-9.11727
▁현대	-9.1175
▁레	-9.11798
월부터	-9.11817
작	-9.11817
▁관련해	-9.11835
▁광	-9.12043
F	-9.12099
날	-9.12111
▁업무	-9.12139
▁도시	-9.12396
년까지	-9.12501
▁중앙	-9.12521
하도록	-9.12541
함	-9.12569
▁특별	-9.12716
▁없다고	-9.12724
갑	-9.12852
▁준비	-9.12861
▁왕	-9.13021
▁못한	-9.13028
▁소속	-9.13137
▁이런일이	-9.13383
자가	-9.13408
▁사업을	-9.13485
▁과거	-9.13503
되면	-9.13599
주의	-9.13649
▁환자	-9.13705
▁경영	-9.13755
▁사람	-9.13758
링	-9.13828
▁마케팅	-9.13897
▁사건	-9.14015
▁열고	-9.14205
든	-9.14498
▁청	-9.14506
▁네이버	-9.14512
하는데	-9.1456
▁인공지능	-9.14561
도록	-9.14772
▁뿐	-9.14803
▁그렇게	-9.1491
▁팀	-9.14921
▁입	-9.15219
▁마지막	-9.1524
▁피해	-9.15249
▁사람들이	-9.15257
▁분야	-9.15305
▁입장을	-9.15397
H	-9.15419
▁차량	-9.15424
▁프랑스	-9.15475
추	-9.1559
▁키	-9.15625
▁생각	-9.15686
▁혁신	-9.1576
▁더불어민주당	-9.15864
▁토	-9.15927
▁카드	-9.15942
입	-9.16152
언	-9.16199
▁할인	-9.1623
▁해서	-9.16413
▁지금까지	-9.16413
로서	-9.16437
▁위치한	-9.16444
U	-9.16451
▁구성	-9.16452
▁않다	-9.16584
▁대응	-9.1666
변	-9.16698
▁활용	-9.16742
▁바탕으로	-9.16895
커	-9.16916
▁금지	-9.16966
▁그룹	-9.16991
윤	-9.17245
▁사실상	-9.17248
y	-9.17334
세대	-9.17644
▁전망이다	-9.17804
시장	-9.17822
▁프리미엄	-9.17901
▁점을	-9.1796
▁지방	-9.17998
▁이벤트를	-9.18273
L	-9.18369
▁스스로	-9.18372
▁상품	-9.1857
▁받는	-9.18592
▁것이라는	-9.18596
▁200	-9.18735
▁증가	-9.18817
▁처음으로	-9.18997
▁인사	-9.1901
▁이야기	-9.19133
15	-9.19166
▁2010	-9.19166
▁기반	-9.19336
북	-9.19351
kmib	-9.19586
메	-9.19605
▁많다	-9.1967
이지만	-9.19688
19	-9.19734
▁작은	-9.19757
▁교수는	-9.19868
▁주는	-9.19882
하자	-9.1989
▁내용을	-9.19985
▁~	-9.20005
▁이용해	-9.20006
죠	-9.20052
12	-9.20131
▁관심이	-9.20261
익	-9.20263
말	-9.20265
▁즐길	-9.20349
송	-9.20375
▁디자인	-9.20382
이란	-9.20441
▁별	-9.20462
손	-9.20466
▁어려운	-9.20509
▁이들	-9.20542
▁대부분	-9.20552
▁실제로	-9.20729
▁대상	-9.20786
▁오히려	-9.20808
▁현지	-9.20876
▁종	-9.20919
편	-9.20942
▁즉	-9.21122
정보	-9.21177
▁나는	-9.2119
▁페이스북	-9.21258
▁2000	-9.21291
▁따라서	-9.2135
테	-9.21446
▁구조	-9.21469
▁참	-9.21585
40	-9.21725
▁특정	-9.21759
▁불법	-9.21786
▁러시아	-9.21881
▁네트워크	-9.21965
▁앞	-9.22091
▁법	-9.22231
g	-9.22268
▁경쟁	-9.22279
▁사전	-9.22347
▁돼	-9.22406
▁업계	-9.22438
▁가족	-9.22451
▁기록	-9.22461
▁말을	-9.22487
울	-9.22491
▁자신이	-9.22643
▁창업	-9.22765
▁구축	-9.23219
▁직	-9.23462
시켜	-9.23492
▁)	-9.23529
▁북	-9.23555
출	-9.23572
▁발표했다	-9.24011
▁투	-9.24137
▁가격	-9.24167
▁조직	-9.24196
▁보였다	-9.2428
▁병원	-9.24396
시설	-9.24416
업체	-9.24493
▁거래	-9.24536
▁병	-9.2459
으로부터	-9.24631
장이	-9.24643
N	-9.24749
갈	-9.24787
채	-9.24808
▁아시아	-9.24887
▁H	-9.24924
위원회	-9.24995
V	-9.25111
▁수사	-9.25149
탈	-9.25156
▁활동을	-9.25195
성이	-9.25209
애	-9.2524
▁씨	-9.25329
▁밤	-9.25351
▁V	-9.25444
▁논의	-9.25478
빈	-9.25479
▁여전히	-9.25502
▁않아	-9.25515
50	-9.25526
경제	-9.25606
▁미국의	-9.25821
▁기준으로	-9.25824
결	-9.25859
▁길	-9.25893
▁500	-9.25917
▁시장에서	-9.26086
▁힘을	-9.26116
억원을	-9.2612
▁눈	-9.26132
▁기능	-9.26133
h	-9.26136
▁국회의원	-9.26151
▁못하고	-9.26364
기가	-9.2637
O	-9.26382
▁은행	-9.26389
하겠다고	-9.2639
▁여야	-9.26414
가지	-9.26447
▁1000	-9.26455
▁장관	-9.26646
▁나온	-9.26726
▁이번에	-9.26785
지를	-9.26845
▁앞에서	-9.27022
찬	-9.2705
지원	-9.27248
▁경우가	-9.27375
스타	-9.27463
▁경찰	-9.27491
p	-9.2761
▁내부	-9.27987
▁암	-9.28094
▁상황에서	-9.28288
(,	-9.2846
▁디	-9.28463
▁버	-9.28478
▁중구	-9.28599
▁플레이	-9.28722
한국	-9.28784
▁의견을	-9.28957
▁알고	-9.29042
▁사이	-9.29072
▁만드는	-9.29166
족	-9.2921
▁나온다	-9.29284
▁민	-9.29325
그룹	-9.29547
▁이전	-9.29571
▁제주	-9.29603
▁프로그램	-9.29615
▁해도	-9.29631
합	-9.29781
들도	-9.29802
줄	-9.2983
▁지적했다	-9.29922
▁게임을	-9.29976
11	-9.29997
였던	-9.30138
▁업체	-9.30213
▁예상	-9.30231
▁프로	-9.30345
담	-9.30357
▁놓고	-9.30359
개발	-9.3038
했을	-9.30421
▁본문	-9.30445
▁연결	-9.30581
권을	-9.3061
▁통	-9.3063
처	-9.30762
▁우리가	-9.3084
▁홈페이지	-9.30875
▁80	-9.30894
홍	-9.30961
▁전시	-9.3098
▁주장했다	-9.31037
▁없었다	-9.31139
▁회장은	-9.31227
장은	-9.31331
년대	-9.31371
▁민간	-9.31471
▁시작했다	-9.31758
▁시행	-9.31775
▁E	-9.31914
▁선정	-9.31922
▁변경	-9.31927
자는	-9.32
록	-9.32058
▁이들은	-9.32115
▁안철수	-9.32238
되며	-9.32243
▁원칙	-9.32311
▁전투	-9.32592
▁결제	-9.32639
포인트	-9.3267
▁풀	-9.32749
GB	-9.32783
▁합의	-9.32856
▁이달	-9.3292
▁겸	-9.33008
▁요	-9.33078
▁용	-9.33091
▁관	-9.33165
▁없다는	-9.33203
▁작년	-9.33381
▁전혀	-9.33422
블	-9.33505
명으로	-9.33537
마다	-9.33541
있는	-9.33553
숙	-9.33669
격	-9.33684
볼	-9.33706
텔레콤	-9.33727
▁조선	-9.33776
▁팔	-9.338
기자	-9.33804
▁유통	-9.33808
▁기록했다	-9.33882
▁규제	-9.33891
▁시간이	-9.34034
막	-9.34201
▁했습니다	-9.34429
▁남북	-9.3449
▁되면	-9.3449
▁홍보	-9.34494
▁판	-9.34508
▁머니투데이	-9.34556
c	-9.34566
▁인도	-9.34709
▁발사	-9.34721
▁시장에	-9.34827
▁VR	-9.34945
베	-9.34969
▁하며	-9.35002
▁보호	-9.35016
▁유지	-9.35084
▁가입	-9.35102
다는	-9.35126
▁만들	-9.35201
▁인수	-9.35201
▁위해서는	-9.35202
와의	-9.35217
▁우주	-9.35267
▁수밖에	-9.35445
▁일단	-9.3553
▁자세한	-9.35559
▁아시아경제	-9.35676
▁북한이	-9.35708
씩	-9.35824
▁진행한다	-9.35846
▁300	-9.35856
▁치료	-9.35896
▁포함한	-9.35913
▁열리는	-9.35962
▁원하는	-9.36072
▁활성화	-9.36072
택	-9.36072
▁분양	-9.36094
▁때는	-9.36177
▁장비	-9.3619
▁지속적으로	-9.36286
▁베	-9.36388
▁이유로	-9.36406
▁사실을	-9.36424
:	-9.3644
?	-9.36462
▁대규모	-9.36466
▁주변	-9.36606
▁́	-9.36716
▁자연	-9.36749
▁IoT	-9.36785
사가	-9.36823
▁일정	-9.36824
▁귀	-9.36833
▁생	-9.36933
▁식	-9.36949
▁소통	-9.37006
▁개발한	-9.37012
▁지속	-9.37091
▁방식으로	-9.37094
하겠다는	-9.3719
새	-9.37244
▁추	-9.37277
▁체험	-9.37286
친	-9.37301
으면	-9.37338
품	-9.37411
▁강력한	-9.37429
▁전환	-9.37512
졌다	-9.37582
▁상황	-9.37584
▁콘텐츠를	-9.37596
▁상승	-9.37724
▁감염	-9.37739
▁핵	-9.37792
▁오픈	-9.37853
mm	-9.3786
▁선택	-9.37884
▁전자	-9.37899
▁이용할	-9.37928
▁경향신문	-9.37947
▁인기를	-9.38038
▁패	-9.38089
▁로봇	-9.38143
▁진출	-9.38358
▁듯	-9.38375
▁상당히	-9.38402
▁것에	-9.38524
▁보는	-9.38597
▁야당	-9.38617
▁배치	-9.38685
▁것이라며	-9.38743
▁소비자	-9.38799
▁사용하는	-9.38866
▁관계	-9.38935
▁조성	-9.38965
▁결과를	-9.38969
▁종합	-9.3915
율	-9.39262
▁통과	-9.39308
▁의료	-9.39388
악	-9.39575
▁기반으로	-9.3963
▁겁니다	-9.39662
▁인식	-9.3974
▁추천	-9.39835
▁이용자	-9.39864
력을	-9.39908
일현지시간	-9.40036
▁채용	-9.40229
▁열어	-9.40523
▁운동	-9.40587
▁글	-9.40637
시스템	-9.40697
료	-9.40699
▁방안을	-9.40722
까	-9.40775
16	-9.40918
i	-9.40983
▁여기에	-9.41057
▁전기	-9.41146
▁설계	-9.41163
▁회복	-9.41233
향	-9.41286
▁검색	-9.41296
▁청년	-9.41303
년에는	-9.41309
▁빠른	-9.41335
▁참가	-9.41559
▁목	-9.41615
▁하다	-9.4163
쳐	-9.41644
▁맞춰	-9.41667
필	-9.41682
▁예산	-9.41705
▁도움이	-9.41779
▁없어	-9.41788
er	-9.41878
▁중단	-9.41937
▁일을	-9.4195
대학	-9.41971
다가	-9.4202
▁소프트웨어	-9.42038
▁빠르게	-9.42075
▁단체	-9.42122
▁야	-9.42143
▁아울러	-9.4218
▁O	-9.42232
▁내용은	-9.42249
스트	-9.42521
▁있어서	-9.42619
▁메	-9.42628
총	-9.42778
▁효과를	-9.42786
▁통일	-9.42794
▁공공	-9.42797
▁밝혔습니다	-9.4283
▁평	-9.42873
섭	-9.42886
▁행정	-9.42939
E	-9.42947
▁조금	-9.43012
사를	-9.43024
▁인상	-9.43102
▁정식	-9.43113
▁R	-9.43144
▁서울시	-9.43163
▁모습	-9.43166
▁요구	-9.43187
▁카메라	-9.43284
▁2009	-9.43392
▁안에	-9.43487
▁활용해	-9.4358
▁왔다	-9.43718
▁매년	-9.4372
▁<	-9.43747
▁부동산	-9.43758
▁혐의로	-9.43759
▁시장을	-9.43763
충	-9.43798
▁호텔	-9.43834
▁시간을	-9.43927
▁주택	-9.43963
▁외국인	-9.43982
자를	-9.43989
▁자주	-9.44009
▁새롭게	-9.44015
지도	-9.44032
▁장관이	-9.44075
삼	-9.44108
▁무료	-9.44155
옥	-9.44216
25	-9.44231
▁혜택을	-9.4429
▁전에	-9.44302
▁낮은	-9.44303
▁교	-9.44382
▁나오는	-9.44389
▁연속	-9.44479
▁우리나라	-9.44561
▁논란이	-9.44584
▁비슷한	-9.44637
▁사용자	-9.44652
▁모델	-9.44761
▁하는데	-9.44767
▁문제는	-9.44805
▁시험	-9.4486
▁초기	-9.44907
취	-9.44919
▁지정	-9.44922
액	-9.44936
뿐	-9.45078
골	-9.45095
▁하기	-9.4513
▁인증	-9.4522
병원	-9.45225
▁이름을	-9.45259
▁계약	-9.45273
▁상황이	-9.4531
▁설립	-9.45353
케	-9.45444
▁사회적	-9.45471
상을	-9.45475
▁공유	-9.45497
▁유승민	-9.45589
술	-9.45625
슨	-9.45638
녀	-9.4569
시키는	-9.45728
글	-9.45737
▁확산	-9.45761
▁친	-9.45865
▁경찰은	-9.45943
▁나왔다	-9.45968
긴	-9.46011
▁원내대표	-9.46077
▁삼성전자는	-9.46228
▁교통	-9.46278
▁비즈니스	-9.46279
▁부분	-9.46334
▁돈을	-9.46419
황	-9.46484
▁U	-9.46502
없이	-9.46618
▁것과	-9.46661
독	-9.46783
풍	-9.46785
▁단지	-9.46849
▁점에서	-9.46857
▁미디어	-9.47074
욱	-9.47087
▁기사	-9.4712
▁지급	-9.47166
70	-9.4725
▁국민의당	-9.47312
방송	-9.47352
▁넘는	-9.47392
▁위반	-9.47418
▁참석한	-9.47511
▁조정	-9.47636
▁소재	-9.47721
다고	-9.47745
▁보이고	-9.47943
▁돌	-9.4798
▁총리	-9.48026
회사	-9.4803
했는데	-9.48058
▁2008	-9.48067
▁감소	-9.48082
▁W	-9.48167
▁이야기를	-9.48178
▁망	-9.48188
▁인한	-9.48285
▁포함	-9.48307
▁있었던	-9.48321
▁섬	-9.48375
▁스포츠	-9.48396
▁홈	-9.4845
축	-9.48516
▁수도권	-9.48601
보다는	-9.48642
▁필요	-9.48661
▁예상된다	-9.48682
▁확보	-9.48709
▁봉	-9.4872
▁더불어	-9.4873
▁씨는	-9.48852
▁울산	-9.48993
14	-9.49014
▁혹은	-9.49045
혜	-9.49073
▁솔루션	-9.49096
했으나	-9.49097
▁담	-9.49113
▁스타트업	-9.4916
▁긴급	-9.49282
▁사람은	-9.49318
60	-9.49325
▁무기	-9.49458
▁없고	-9.49468
▁배터리	-9.49522
▁역사	-9.49559
▁강한	-9.49665
폰	-9.49707
▁뉴	-9.49744
I	-9.49769
▁내가	-9.49772
▁규모의	-9.49914
투자	-9.49935
▁불구하고	-9.50062
▁유명	-9.50094
기에	-9.5012
씨가	-9.50183
맨	-9.50289
했다는	-9.50352
18	-9.50436
주년	-9.5045
▁필요가	-9.50491
▁방침이다	-9.50531
▁발생한	-9.50627
▁입장	-9.50659
협회	-9.50711
▁외부	-9.50769
존	-9.50865
▁맞는	-9.50866
▁사상	-9.50939
페	-9.50965
d	-9.51015
▁주제로	-9.51029
▁사이에	-9.51033
▁것입니다	-9.51051
머	-9.51072
▁반드시	-9.51111
▁돈	-9.51168
돌	-9.51197
80	-9.51256
▁전쟁	-9.51303
▁고용	-9.51423
▁상황을	-9.51435
▁등록	-9.51474
인지	-9.51605
착	-9.51692
▁쓸	-9.51763
▁저작권	-9.51764
▁활용한	-9.51783
▁기획	-9.51798
학교	-9.51843
월에	-9.51886
별로	-9.51886
▁있지	-9.51894
▁컴퓨터	-9.51933
헌	-9.51967
▁변화	-9.52027
▁인근	-9.5208
▁배우	-9.52102
▁복지	-9.52116
▁중소기업	-9.52178
▁루	-9.52201
▁보통	-9.52202
균	-9.52215
▁업데이트	-9.52225
점을	-9.52271
▁아이템	-9.52333
▁몸	-9.52359
▁기자회견을	-9.52391
▁준	-9.5248
▁해결	-9.52534
▁상대로	-9.52542
▁I	-9.52543
▁의사	-9.52545
▁여자	-9.52588
▁프로젝트	-9.52591
▁되지	-9.52652
▁사장	-9.52664
대를	-9.52679
▁대화	-9.52718
▁경남	-9.52764
21	-9.52782
▁촬영	-9.52792
▁창	-9.52955
▁석	-9.52978
▁넘어	-9.53003
▁최고의	-9.53066
▁출신	-9.53076
으로서	-9.53107
▁대해서	-9.53113
되기	-9.53399
▁과학	-9.53433
▁대회	-9.53447
▁종로구	-9.53487
주는	-9.53685
사회	-9.53832
션	-9.53924
▁나오고	-9.53936
▁위해서	-9.54037
▁좋다	-9.54119
▁보이는	-9.54218
▁걸쳐	-9.54248
▁확장	-9.54262
▁형	-9.54275
▁피부	-9.54288
▁정상	-9.54383
▁어린이	-9.54527
▁영업	-9.54623
기는	-9.54629
13	-9.54662
▁채널	-9.54678
▁새로	-9.54696
▁대표의	-9.5481
▁선수	-9.54881
시킬	-9.54931
킹	-9.55025
▁정말	-9.55132
가구	-9.55171
▁관광	-9.55233
▁못했다	-9.55278
번째	-9.55304
▁동영상	-9.55361
▁강원	-9.55409
▁최신	-9.55433
▁축구	-9.55433
하려는	-9.55451
▁적이	-9.55473
뿐만	-9.55514
▁데이터를	-9.55518
▁향	-9.55533
알	-9.55615
극	-9.55673
▁남성	-9.55765
▁정당	-9.55818
▁시대	-9.55825
▁인간	-9.55855
▁자유	-9.55895
▁전문가	-9.55899
▁힘	-9.56014
▁누	-9.5609
앤	-9.56103
▁90	-9.56133
▁복	-9.5626
▁성과를	-9.56276
▁시스템을	-9.56326
과의	-9.56349
▁스타	-9.56367
▁마련	-9.56414
▁검사	-9.56423
▁존재	-9.56527
▁빈	-9.56767
▁어제	-9.56828
▁등장	-9.56907
촌	-9.5696
▁가는	-9.57027
500	-9.57079
▁수입	-9.571
▁발견	-9.57157
▁시리즈	-9.57239
춘	-9.57246
▁헝그리앱	-9.573
∼	-9.57323
▁나서	-9.57333
곳	-9.57506
▁기념	-9.57536
▁건강	-9.57567
▁검찰	-9.57576
거리	-9.57674
▁보내	-9.57681
▁슈퍼	-9.57722
▁아들	-9.57767
세기	-9.57809
▁시설	-9.57819
▁자리를	-9.57836
▁제안	-9.57865
됐습니다	-9.57892
▁신고	-9.57944
▁나갈	-9.57983
▁폭	-9.57988
▁중심	-9.58012
▁재배포	-9.5803
▁35	-9.58034
k	-9.58048
▁얘기	-9.58107
▁시작으로	-9.58151
대학교	-9.58287
▁기관	-9.58305
▁완전히	-9.58358
300	-9.58392
▁CJ	-9.58411
▁봄	-9.58446
▁우려	-9.58466
▁카카오	-9.58469
책	-9.58518
▁방문해	-9.58578
▁쓰	-9.58578
▁지원을	-9.58587
▁공연	-9.58638
▁속에	-9.58696
▁검토	-9.58881
▁확정	-9.59
▁맞	-9.59085
200	-9.59148
▁꼭	-9.59164
▁J	-9.59171
정책	-9.59173
▁디스플레이	-9.59225
▁책	-9.59228
▁철	-9.59228
▁행사를	-9.59254
▁갖춘	-9.59305
혁	-9.5931
기로	-9.59335
▁회장이	-9.59367
이었던	-9.59435
▁상대	-9.59437
▁하락	-9.5945
겠다	-9.59469
▁지하	-9.59471
▁곧	-9.59473
▁결	-9.5962
패	-9.59626
▁뇌	-9.5973
▁반도체	-9.59788
▁우수	-9.59878
▁한번	-9.59879
▁태	-9.59965
▁것처럼	-9.59977
제를	-9.60027
▁얼마나	-9.60042
사의	-9.60145
▁추가로	-9.60156
▁질	-9.60178
▁특징이다	-9.6028
▁계정	-9.60284
▁제조	-9.60392
▁드라마	-9.60401
▁아니	-9.60412
▁여행	-9.60438
▁공개했다	-9.60471
▁리포트	-9.60575
▁외에도	-9.60599
▁낮	-9.60703
▁발표한	-9.60717
▁들고	-9.60719
귀	-9.6079
▁음성	-9.60802
▁우리는	-9.60901
인치	-9.60928
자로	-9.60938
이하	-9.60975
겠다는	-9.61078
▁기회를	-9.61168
▁막	-9.61191
▁전면	-9.61197
▁ICT	-9.61215
아이	-9.61231
n	-9.61271
낸	-9.61273
▁이유는	-9.61287
▁주민	-9.61347
▁학생	-9.61356
▁관련된	-9.61395
렌	-9.61421
▁아주	-9.61591
때	-9.61617
카드	-9.61695
▁말한다	-9.61698
▁호남	-9.62007
▁표현	-9.62041
팅	-9.62123
▁티	-9.62183
▁부담	-9.62189
환경	-9.62204
명은	-9.62226
▁눈에	-9.62252
▁작품	-9.62262
▁의미	-9.62286
▁재정	-9.62326
▁신청	-9.62372
▁한국의	-9.62407
▁참석해	-9.62408
▁대표와	-9.62417
▁법률	-9.62461
▁일본의	-9.62465
▁시절	-9.62559
칠	-9.62589
▁판단	-9.62652
▁X	-9.6267
▁자동	-9.62689
▁실시간	-9.62691
▁유저	-9.62775
코리아	-9.62888
▁롯데	-9.62913
냐	-9.62966
안전	-9.63027
▁유엔	-9.63066
▁자료	-9.6309
▁차례	-9.63093
▁사망	-9.63261
▁효과가	-9.63315
▁공무원	-9.63414
▁훨씬	-9.63415
▁높다	-9.63418
▁교체	-9.63512
▁나라	-9.63515
▁최초	-9.63562
▁속에서	-9.63665
▁주장	-9.63681
단체	-9.63735
▁딸	-9.63735
▁2007	-9.63736
은행	-9.63786
▁프로그램을	-9.64029
완	-9.64029
▁공간	-9.64041
▁계	-9.64093
공사	-9.64145
▁나섰다	-9.64151
▁함	-9.64182
▁국민의	-9.64189
▁밀	-9.64208
▁극	-9.64235
▁연간	-9.64244
▁이른바	-9.6428
톤	-9.64317
▁하나의	-9.64386
▁타고	-9.64406
▁근무	-9.64407
▁e	-9.64417
▁형성	-9.64441
▁리그	-9.64529
▁건물	-9.64552
▁젊은	-9.64636
▁N	-9.64653
염	-9.64715
▁뿐만	-9.64733
자의	-9.64859
▁국	-9.64886
▁전력	-9.64977
▁그가	-9.64994
▁자리	-9.64999
▁개최	-9.65
하였고	-9.65021
▁부족	-9.65063
효	-9.65066
▁결혼	-9.65066
▁사랑	-9.65106
궁	-9.65135
▁설정	-9.65159
금융	-9.6519
▁보니	-9.65213
▁듣고	-9.65225
▁반응을	-9.65339
함을	-9.65371
▁사장은	-9.65378
!	-9.65436
▁시작한	-9.65438
▁전날	-9.65441
시킨	-9.65501
유플러스	-9.6559
▁매일	-9.65696
▁시민	-9.65731
▁아래	-9.65739
▁테	-9.65756
▁회원	-9.65808
▁매장	-9.65869
▁설명	-9.65884
▁특수	-9.65915
▁L	-9.6595
▁미사일	-9.65984
▁가정	-9.66045
▁전년	-9.66067
▁개혁	-9.66081
▁골	-9.66153
▁합	-9.66234
▁투표	-9.66238
겠다고	-9.66239
견	-9.66282
▁이동통신	-9.66328
스는	-9.66339
함으로써	-9.66414
▁지구	-9.66457
라면	-9.66484
▁벌	-9.66577
▁육성	-9.66669
▁하나로	-9.66871
▁제도	-9.66954
▁진화	-9.66975
▁상반기	-9.66977
곤	-9.6702
▁LTE	-9.67023
▁장관은	-9.6704
▁한반도	-9.67046
회의	-9.67062
▁전남	-9.67205
▁담당	-9.67211
▁도로	-9.67261
▁웹	-9.67263
엘	-9.67321
▁제한	-9.67322
▁의원의	-9.6739
▁등에서	-9.67405
만원을	-9.67445
17	-9.67468
▁국립	-9.67552
▁필요하다	-9.67559
▁기대	-9.67623
▁전화	-9.67624
▁밖에	-9.67831
▁개정	-9.67947
▁제공하고	-9.67972
▁악	-9.68008
▁고려	-9.6804
▁가까운	-9.68047
▁주문	-9.68049
▁알려져	-9.68055
▁적극적으로	-9.68075
▁블록체인	-9.6808
기관	-9.68128
▁접	-9.68163
▁없을	-9.68164
지구	-9.6822
▁등과	-9.6823
▁시도	-9.68336
왔다	-9.68368
서울	-9.68461
▁꾸준히	-9.68476
▁예약	-9.68507
사는	-9.68514
▁하였다	-9.68598
▁탈	-9.6862
▁마을	-9.68632
▁내에서	-9.68694
▁기업이	-9.68748
벌	-9.68755
▁차세대	-9.6877
l	-9.68791
▁접근할	-9.68793
▁밝힌	-9.68794
일에	-9.68822
▁근	-9.68848
▁폐	-9.69024
▁지도	-9.69033
▁다음과	-9.69088
▁상태	-9.6911
감을	-9.69237
▁커	-9.69254
▁하면서	-9.69288
▁경험	-9.69303
▁소개	-9.69311
▁직원	-9.69315
▁인하	-9.69348
▁보기	-9.69372
단계	-9.69451
▁다소	-9.69456
원으로	-9.69515
위에	-9.69524
▁취업	-9.69556
▁대한민국의	-9.69566
▁전북	-9.69583
▁승	-9.6964
평가	-9.6973
서를	-9.69734
▁했지만	-9.69777
▁독	-9.69792
▁격	-9.69797
▁서버	-9.69845
▁연기	-9.69887
▁도움을	-9.70028
▁굉장히	-9.70029
▁비용	-9.70047
▁분야에서	-9.70066
▁이데일리	-9.70081
▁질문	-9.70146
▁못하는	-9.70155
▁부인	-9.70205
▁마무리	-9.7027
▁화면	-9.70271
▁관계자	-9.70275
▁노동	-9.70411
▁꽃	-9.70484
▁영어	-9.70541
▁말이	-9.70559
▁작업	-9.70619
▁대표적인	-9.70672
▁훈련	-9.70763
~	-9.70775
▁보도를	-9.70798
았다	-9.70847
▁표준	-9.70879
▁실시	-9.70914
원을	-9.70921
▁음식	-9.70932
▁나머지	-9.70939
▁라인	-9.70993
들에	-9.71135
▁아이뉴스	-9.71287
▁군사	-9.71297
누	-9.71311
▁국무총리	-9.71347
▁도전	-9.7136
▁기업의	-9.71372
▁페	-9.71379
▁전달	-9.71424
폐	-9.71465
▁보수	-9.71465
▁KBS	-9.71477
▁셈이다	-9.71544
▁강원도	-9.7157
▁충분히	-9.71571
▁가입자	-9.7158
▁소비	-9.71615
턴	-9.71665
▁형태로	-9.71774
▁참석	-9.71781
▁시장은	-9.71851
▁제가	-9.71851
협	-9.71904
▁선거구	-9.7191
슈	-9.71982
대가	-9.71996
▁신임	-9.72023
▁시장의	-9.72073
▁찾는	-9.72099
▁위치	-9.72143
▁지역에	-9.72161
라도	-9.72167
▁손을	-9.7217
▁평가를	-9.72195
▁여당	-9.72201
u	-9.7225
▁명이	-9.72276
달러	-9.7228
▁외교부	-9.72301
▁명의	-9.7231
▁대출	-9.72377
▁대선	-9.72414
▁전망	-9.72544
▁상품을	-9.72608
▁식품	-9.72626
▁처	-9.7264
▁개통	-9.72665
호선	-9.72697
▁버스	-9.72762
▁원래	-9.72843
IT	-9.72844
▁수술	-9.7288
▁법안	-9.72907
이기도	-9.72943
척	-9.72949
▁부문	-9.73042
▁이용한	-9.7312
▁알려진	-9.7319
▁0	-9.73195
▁갤럭시노트	-9.73255
름	-9.73296
있다	-9.73312
탑	-9.73335
연구소	-9.73366
▁히	-9.7337
▁직후	-9.73407
J	-9.7342
▁피해를	-9.73476
▁않으면	-9.73492
▁일자리	-9.73543
▁독립	-9.73574
▁45	-9.73593
▁정치적	-9.73657
쇼	-9.73659
▁액션	-9.7371
▁준다	-9.73717
전을	-9.73743
룡	-9.73763
▁실적	-9.7379
▁이하	-9.7382
월까지	-9.73854
싱	-9.73857
▁반론	-9.73869
▁실험	-9.73878
▁진행된다	-9.7397
성과	-9.73977
님	-9.7413
걸	-9.74158
▁저는	-9.74184
▁구성된	-9.74243
▁높이	-9.74255
▁이완구	-9.74269
▁예정	-9.74343
▁나와	-9.74399
리아	-9.74405
▁경북	-9.7447
▁RPG	-9.74476
▁협상	-9.74515
▁의심	-9.7453
▁급	-9.74624
혀	-9.74643
▁쓰는	-9.74645
▁비판	-9.74651
▁울	-9.7466
▁Q	-9.74664
▁목표	-9.74715
조사	-9.74774
▁노력	-9.74786
습	-9.74823
공원	-9.74918
22	-9.74929
▁중에	-9.74959
▁-	-9.74973
▁담은	-9.74977
▁연장	-9.75057
▁테스트	-9.75064
▁국민일보	-9.75078
버스	-9.7509
▁주고	-9.75141
▁진행하고	-9.7522
▁과정을	-9.75243
▁앞둔	-9.75246
이기	-9.75251
▁영웅	-9.75279
플	-9.75286
▁누구나	-9.75341
▁보장	-9.7536
검	-9.75523
▁공장	-9.75581
▁책임	-9.75646
v	-9.75648
▁무선	-9.75758
슬	-9.75992
▁피해자	-9.7605
;	-9.76076
▁노출	-9.76113
b	-9.76114
▁청소년	-9.7612
▁월드	-9.76123
t	-9.76169
▁안드로이드	-9.76228
▁존	-9.7624
▁개편	-9.763
▁인정	-9.76302
▁없	-9.76365
cm	-9.76378
스포츠	-9.76501
Y	-9.76564
▁CEO	-9.76587
전자는	-9.76588
▁헤	-9.76591
▁사과	-9.76798
29	-9.76882
정치	-9.769
▁환	-9.7694
▁앞에	-9.76943
koa	-9.76952
▁양성	-9.76994
수를	-9.76996
▁남자	-9.77046
▁청구할	-9.77046
▁자체가	-9.77051
▁미리	-9.77059
▁수준의	-9.77097
▁규모	-9.77124
▁대북	-9.77141
올	-9.77199
▁뜻	-9.77205
경기	-9.77236
▁제공할	-9.77253
▁감사	-9.77275
▁사실이	-9.77302
▁원내대표는	-9.77399
칭	-9.77485
시켰다	-9.77526
▁충전	-9.7754
돈	-9.77545
▁수행	-9.77545
▁탄	-9.77567
AI	-9.77598
▁권리가	-9.7779
▁지지	-9.77842
▁측	-9.77865
운동	-9.77867
▁합병	-9.77927
▁심사	-9.77946
▁학	-9.77955
▁질문에	-9.78005
▁이유	-9.78022
정정	-9.78069
▁위에	-9.78078
몰	-9.78115
움	-9.78168
▁학습	-9.78209
▁특허	-9.78251
▁지적	-9.78273
▁둔	-9.78275
▁SW	-9.78355
▁폐지	-9.784
ig	-9.78406
쉬	-9.78494
▁지원하는	-9.78507
▁연계	-9.78615
▁표	-9.78617
▁주력	-9.78669
▁변호사	-9.78685
▁그러면서	-9.78734
▁조치	-9.78735
▁보여	-9.7883
▁phooewsis	-9.78889
▁베트남	-9.78944
▁내려	-9.7898
a	-9.79033
▁탈당	-9.79037
▁보도	-9.7907
▁국내외	-9.7908
▁그리스	-9.79107
▁차원에서	-9.79159
News	-9.79256
텔레콤은	-9.79257
▁목표로	-9.79278
렸다	-9.79383
▁완화	-9.7939
통신	-9.79394
3000	-9.79405
90	-9.79405
▁발굴	-9.79423
만큼	-9.79446
개국	-9.7945
▁언급	-9.79491
▁받지	-9.79611
▁대해서도	-9.79613
▁기억	-9.79651
본부	-9.79672
▁쿠	-9.79692
▁뜻을	-9.79752
▁수가	-9.79784
▁긴	-9.79797
▁환자가	-9.79802
▁검	-9.7983
▁기초	-9.79842
▁자리에서	-9.79848
▁기계	-9.79906
▁성완종	-9.79939
▁그냥	-9.79946
▁순간	-9.79952
▁해킹	-9.79999
▁기기	-9.8
▁사퇴	-9.80034
▁내용	-9.80048
압	-9.80059
▁사이버	-9.80064
▁포함해	-9.80106
▁등은	-9.80218
▁희망	-9.80243
▁비교	-9.80258
▁되	-9.80301
28	-9.80343
▁점이	-9.80351
▁지역구	-9.80359
거래	-9.80399
▁뉴욕	-9.8046
5000	-9.80481
기간	-9.80512
▁회	-9.80547
국가	-9.80566
▁이름	-9.80582
▁지역의	-9.80586
▁융합	-9.80624
▁표시	-9.80685
100	-9.80689
▁친구	-9.80919
▁쉽지	-9.8093
▁검찰은	-9.80942
▁나선	-9.81139
▁김정은	-9.81148
▁디지털뉴스	-9.81164
▁행	-9.81182
▁드론	-9.8126
원에	-9.8126
▁집단	-9.81264
▁전해졌다	-9.81268
26	-9.81317
23	-9.81325
ya	-9.81342
런	-9.81355
▁운영하는	-9.81358
▁32	-9.81363
하겠다	-9.81444
주년을	-9.8145
른	-9.81479
▁예측	-9.81499
▁소리	-9.81506
관계	-9.81517
▁정확한	-9.81527
▁국방부	-9.81534
▁가능성을	-9.81591
▁엘	-9.81668
99	-9.81693
팔	-9.81707
력이	-9.81737
▁예방	-9.81738
▁점검	-9.8177
▁스킬	-9.8178
수가	-9.81785
학과	-9.81796
▁한국온라인신문협회	-9.81816
▁권리와	-9.81827
▁마친	-9.81855
▁모아	-9.81881
▁행사합니다	-9.81926
▁중국의	-9.81926
▁따	-9.81939
용규칙에	-9.81952
연구원	-9.81981
▁부대	-9.82003
▁쇼핑	-9.82005
분야	-9.82016
▁역대	-9.82031
콘	-9.8207
▁승리	-9.82132
▁기존의	-9.82211
▁안내	-9.82212
▁경우에는	-9.8224
조차	-9.82328
▁분류	-9.82401
▁생각을	-9.82408
▁여름	-9.82415
▁Good	-9.82426
▁단계	-9.82454
례	-9.82535
률	-9.82575
▁경험을	-9.82595
▁뛰어난	-9.82596
▁모바일게임	-9.82637
‘	-9.82637
▁항	-9.82713
▁달러	-9.82744
니다	-9.82747
▁제시	-9.82774
▁미란다	-9.82828
▁장기	-9.82832
▁사는	-9.82889
▁패션	-9.82889
▁절	-9.82906
▁제기	-9.82962
▁애니메이션	-9.83025
▁이탈리아	-9.83072
▁해소	-9.83094
추후	-9.831
▁곳이	-9.83179
▁상담	-9.832
시키고	-9.83218
▁이같이	-9.83226
▁IP	-9.83293
▁출마	-9.83293
농	-9.83297
▁육군	-9.83306
▁더민주	-9.83346
▁오른	-9.83407
▁자유로이	-9.8341
▁끝에	-9.8341
▁절반	-9.83417
▁시장이	-9.83427
▁사람의	-9.83493
▁면	-9.83553
▁동기	-9.83564
▁후보가	-9.83574
▁불리는	-9.8358
▁마치	-9.83589
▁선발	-9.83608
▁카페	-9.83627
o	-9.83672
혈	-9.83675
▁사이트	-9.83677
▁기술이	-9.83698
▁내용이	-9.83729
먼	-9.83752
▁나올	-9.83803
▁가격은	-9.83838
▁수준	-9.83866
▁둘	-9.83876
▁했다고	-9.83906
위원	-9.83922
▁보상	-9.83931
발전	-9.83986
스의	-9.84073
▁책임을	-9.84081
▁대책	-9.84116
▁끌고	-9.84132
조원	-9.84158
▁블랙	-9.84167
▁의한	-9.84175
▁계획을	-9.84194
▁수요	-9.84237
에게는	-9.8425
▁지역에서	-9.84318
▁보도했다	-9.84379
▁접수	-9.84418
련	-9.84472
▁아침	-9.84474
▁대폭	-9.84475
▁올랐다	-9.84517
▁조작	-9.84543
임을	-9.84606
▁실행	-9.84616
▁주식	-9.84624
측	-9.84718
▁행동	-9.84737
▁인구	-9.84745
화를	-9.84787
▁차단	-9.84794
▁인프라	-9.84796
웅	-9.84818
▁paper	-9.84921
▁취재원과	-9.84939
▁지원한다	-9.85001
▁범죄	-9.85006
▁교환	-9.85077
개를	-9.85143
▁수정	-9.85158
▁팬	-9.8518
▁여부를	-9.8519
▁어린이집	-9.85221
▁곳	-9.85231
▁소환	-9.85231
35	-9.85266
▁동물	-9.85268
대회	-9.85358
▁빨리	-9.85366
식을	-9.85403
폭	-9.85423
▁실패	-9.85455
마을	-9.85461
▁얻을	-9.85483
▁음	-9.85486
단지	-9.85493
▁류	-9.85539
▁싶은	-9.85597
▁보유한	-9.85599
▁품질	-9.85599
▁2006	-9.85645
▁혼	-9.85696
▁시기	-9.85725
▁예술	-9.85766
읍	-9.85785
▁오래	-9.85891
▁쓴	-9.85923
▁계기로	-9.8593
▁국민일보에	-9.85985
리는	-9.86064
▁고민	-9.86068
▁공략	-9.86276
▁고급	-9.86288
처리	-9.86289
과학	-9.86294
연구	-9.86326
▁설명이다	-9.86338
▁인력	-9.86357
▁차이가	-9.86429
apos	-9.86526
▁프리	-9.8657
▁회의	-9.86595
sp	-9.86601
▁언론	-9.86649
▁새정치연합	-9.86716
▁formula	-9.86752
▁가까이	-9.86758
▁늘	-9.86781
모바일	-9.86793
나무	-9.86985
침	-9.87015
일에는	-9.87016
▁경쟁력	-9.87161
▁거듭	-9.87167
▁누적	-9.87192
▁끝	-9.87208
▁요금제	-9.87248
▁방어	-9.873
이번	-9.87331
▁제출	-9.87333
▁죽	-9.8735
▁내에	-9.87361
적이고	-9.87376
▁독자에게	-9.87396
니까	-9.87406
▁잘못	-9.87406
▁만들기	-9.87415
▁가치를	-9.8746
밀	-9.87562
▁빅데이터	-9.87578
▁체결	-9.87595
물을	-9.87611
▁땅	-9.87688
▁아프리카	-9.8771
탁	-9.87755
▁올림픽	-9.87762
▁많아	-9.87774
▁생각이	-9.87819
▁강남	-9.87906
▁출연	-9.87925
27	-9.87935
▁불러	-9.87953
▁단말기	-9.87954
▁창출	-9.87998
▁노래	-9.8801
▁예를	-9.88028
▁마음을	-9.88029
▁찾은	-9.88058
▁얼굴	-9.88091
▁육	-9.88097
▁부분이	-9.88194
▁하반기	-9.88235
▁자금	-9.88245
▁들어가	-9.88262
▁했던	-9.88286
▁전통	-9.8832
▁아버지	-9.88321
▁얼마	-9.8834
▁투자를	-9.88419
혼	-9.88472
▁눈길을	-9.88542
▁신제품	-9.88597
▁좋아	-9.886
▁늘었다	-9.8864
▁안보	-9.88692
▁34	-9.88761
▁구속	-9.88819
제도	-9.88895
▁슈	-9.88931
▁제외한	-9.88968
▁맞춤형	-9.88991
▁제재	-9.89031
▁증가했다	-9.89042
▁격리	-9.89074
▁체	-9.8909
▁길이	-9.89205
▁노력을	-9.89398
스터	-9.894
생활	-9.89436
▁대체	-9.89468
▁상대적으로	-9.89575
▁풍	-9.89609
▁입주	-9.8966
▁무료로	-9.89664
▁위협	-9.89694
▁직업	-9.89718
▁비상	-9.89739
▁운용	-9.89787
▁투입	-9.8992
▁분리	-9.89927
▁연출	-9.90024
▁당초	-9.90156
학년	-9.90226
▁나가	-9.90277
▁사람을	-9.90324
됩니다	-9.90384
▁보험	-9.90386
LG	-9.90478
▁대기업	-9.90524
힌	-9.9057
보험	-9.90629
▁제품은	-9.90686
▁적은	-9.90723
억원으로	-9.90784
▁엔진	-9.9079
▁선물	-9.90802
▁그림	-9.90803
▁작	-9.90923
▁보유	-9.90931
▁상호	-9.90972
▁가능	-9.90995
▁부품	-9.91011
▁정리	-9.91119
▁작가	-9.91198
▁150	-9.91252
▁주인공	-9.91263
비를	-9.91295
▁위원장은	-9.91331
▁만들고	-9.91354
▁선보였다	-9.9142
▁본격적인	-9.91436
▁원을	-9.91445
al	-9.91452
▁외교	-9.91514
▁의견	-9.91534
▁보입니다	-9.91557
▁수많은	-9.91571
▁시각	-9.91611
▁숙	-9.91641
텍	-9.91645
▁크다	-9.91706
▁상장	-9.91719
▁사업자	-9.91876
▁대부분의	-9.91897
▁곡	-9.91901
낼	-9.9196
▁저녁	-9.91981
▁주말	-9.92024
▁가동	-9.92039
▁종료	-9.92091
▁가구	-9.92092
▁apos	-9.92092
▁향해	-9.9211
▁관련한	-9.92165
▁분위기	-9.92181
▁개의	-9.92182
▁강남구	-9.92216
kg	-9.92255
선을	-9.92257
▁거리	-9.92279
▁개성공단	-9.92326
▁가량	-9.92353
▁원내대표가	-9.92383
시부터	-9.92388
▁수상	-9.92404
▁이해	-9.92423
▁새벽	-9.92483
경영	-9.92533
문을	-9.92541
▁그린	-9.92622
참	-9.92628
▁발언	-9.9269
▁우리의	-9.92707
원이	-9.92712
대상	-9.92765
▁전세계	-9.92826
▁수원	-9.9285
▁계약을	-9.92889
▁외국	-9.92942
▁유치	-9.93004
▁테러	-9.93079
▁대기	-9.93157
▁매각	-9.93199
힐	-9.93202
▁▷	-9.9322
▁기부	-9.93236
셀	-9.93291
▁걱정	-9.93295
▁지상	-9.93317
▁위안부	-9.93366
▁인물	-9.93448
사와	-9.93449
▁통화	-9.93452
협의회	-9.93468
▁성능	-9.93485
▁복합	-9.93584
▁조사를	-9.93653
▁낙	-9.93718
▁진단	-9.93742
▁연합뉴스	-9.93745
▁바이오	-9.93745
31	-9.93748
▁다음달	-9.93785
▁성과	-9.93808
▁사물인터넷	-9.93878
▁협의	-9.93916
▁기자입니다	-9.93943
만명	-9.93976
▁허용	-9.93986
흥	-9.94038
▁통해서	-9.94078
▁축제	-9.94088
▁김영	-9.94123
장으로	-9.9423
▁신경	-9.94233
ed	-9.94271
▁위험	-9.94305
▁나이	-9.94367
정부	-9.94403
되었고	-9.94413
했기	-9.94419
▁푸	-9.94485
▁전개	-9.94525
▁사진을	-9.94533
▁MBC	-9.94561
▁교류	-9.94631
▁소득	-9.9466
▁진입	-9.94666
▁구체적인	-9.94711
▁충북	-9.94712
▁취임	-9.9474
쓰	-9.94798
▁능력을	-9.94806
▁의장	-9.9484
세계	-9.94872
▁운	-9.94915
듯	-9.94932
▁참여한	-9.94944
진다	-9.94965
전략	-9.94969
▁접근	-9.95153
솔	-9.95162
▁파괴	-9.95177
▁생각한다	-9.95257
▁수준으로	-9.95421
▁조기	-9.95432
▁상황이다	-9.95491
▁농	-9.95501
▁해석	-9.9555
▁출	-9.95554
▁먹	-9.95661
으나	-9.95677
▁스토리	-9.957
▁하이	-9.95714
기구	-9.95726
▁정신	-9.95771
▁모드	-9.9578
뉴시스	-9.95814
▁후보자	-9.95816
▁현장에서	-9.95919
▁공사	-9.95946
▁드	-9.95992
리스	-9.96018
▁지금은	-9.96089
▁측정	-9.96145
분의	-9.96148
▁이처럼	-9.96185
▁가치	-9.96239
▁특별한	-9.96257
▁종목	-9.96257
▁외에	-9.96288
▁낸	-9.96289
▁수용	-9.96294
▁충남	-9.96321
▁오브	-9.9633
▁비행	-9.96346
▁쇼	-9.96429
▁해군	-9.96528
위원장	-9.96532
세를	-9.96552
조선	-9.96586
배포금지	-9.96613
▁위기	-9.9663
▁시청	-9.96641
▁앨범	-9.96757
▁요청	-9.96763
▁잔	-9.968
▁자신을	-9.96814
법을	-9.96844
▁재개	-9.96846
▁지하철	-9.96864
▁변화를	-9.96896
클	-9.96897
▁떨어진	-9.96904
▁진행된	-9.96904
▁2005	-9.96964
▁미니	-9.97005
▁유출	-9.97091
▁않도록	-9.97249
▁최초의	-9.97287
국제	-9.97292
딩	-9.973
▁때까지	-9.97352
려고	-9.97366
▁길을	-9.97368
▁대통령과	-9.97431
▁나무	-9.9746
▁가수	-9.97492
씨의	-9.97529
▁최고위원	-9.97547
왼쪽	-9.97619
▁야권	-9.97683
▁거부	-9.97832
▁상황에	-9.9784
▁활용할	-9.97852
▁점차	-9.97855
▁하게	-9.97864
구조	-9.97867
▁말했습니다	-9.97908
▁홍콩	-9.97945
▁됩니다	-9.9795
▁조합	-9.9796
랄	-9.9798
▁이같은	-9.98116
▁때마다	-9.98118
▁과제	-9.98122
▁이때	-9.98168
▁마찬가지로	-9.98208
▁갑자기	-9.98217
해주는	-9.9827
▁경쟁력을	-9.98286
▁YTN	-9.98309
▁교사	-9.98312
▁개발에	-9.98362
▁도발	-9.98372
▁전부	-9.98432
대의	-9.9848
▁게임의	-9.98495
▁완성	-9.98531
▁앞으로도	-9.98531
▁무슨	-9.98537
▁수익	-9.98555
▁현재까지	-9.98566
▁방식	-9.98617
▁커피	-9.98619
▁규정	-9.98658
▁반영	-9.98688
여명이	-9.9876
▁옥	-9.98776
▁우승	-9.98799
협력	-9.98863
제품	-9.98873
▁경우도	-9.98885
도로	-9.9893
활동	-9.98939
▁문을	-9.98941
f	-9.98944
▁운행	-9.9896
▁출범	-9.98962
▁최소	-9.98965
▁구현	-9.98995
▁언어	-9.99072
▁새누리당은	-9.99082
▁항상	-9.99087
▁씨가	-9.99114
장에서	-9.99149
▁혐의	-9.99155
▁정의	-9.99187
원은	-9.99187
▁모습이	-9.99236
▁굴	-9.99247
▁저장	-9.99264
▁충돌	-9.99266
▁5000	-9.99272
▁서울대	-9.99392
▁부여	-9.99404
▁택시	-9.99437
▁당선	-9.99442
▁선보인다	-9.99455
▁출시된	-9.99459
건설	-9.9946
계획	-9.99461
▁남아	-9.99518
▁작업을	-9.99554
▁반응	-9.99587
앱	-9.99679
▁지분	-9.9968
▁터	-9.99687
▁휴대폰	-9.99699
▁취소	-9.99718
량이	-9.9973
▁CBS	-9.9974
▁구입	-9.99799
얼	-9.99803
▁김종인	-9.99821
해왔다	-9.99844
▁효과	-9.99922
▁과학기술	-9.99932
▁떠나	-9.99932
▁발매	-9.99999
▁이사	-10.0001
▁잡	-10.0004
우리	-10.0009
▁코리아	-10.0012
▁속도	-10.0014
▁있는지	-10.0015
니아	-10.0021
▁최선을	-10.0021
▁사람들은	-10.0022
▁능력	-10.0022
▁맥	-10.0024
▁노인	-10.0024
%	-10.0025
▁당장	-10.0029
▁기타	-10.0033
▁감독	-10.0035
▁수립	-10.0039
안을	-10.0041
회장	-10.0045
▁출시한	-10.0049
▁받는다	-10.0051
▁삼성전자가	-10.0053
군의	-10.0056
국민	-10.0058
▁회장의	-10.0062
지방	-10.0066
▁스페인	-10.0078
▁달성	-10.008
객	-10.0082
펜	-10.0089
▁한미	-10.0092
위는	-10.0092
▁반복	-10.0095
▁400	-10.0097
도시	-10.0106
▁나눠	-10.0111
▁임금	-10.0117
▁접촉	-10.0127
▁전파	-10.0136
▁계산	-10.0138
▁유튜브	-10.0141
▁특	-10.0143
▁꿈	-10.0152
▁써	-10.0153
▁만약	-10.0157
최	-10.0159
었습니다	-10.0159
▁폭발	-10.0159
혁신	-10.0161
▁불과	-10.0169
▁화재	-10.0173
▁통제	-10.0173
▁정도의	-10.0175
▁국정	-10.0175
▁차지했다	-10.018
▁위원장	-10.0184
나라	-10.019
▁제주도	-10.0193
▁캐	-10.0204
▁발언을	-10.0205
람	-10.0207
▁우려가	-10.021
▁데뷔	-10.0217
▁무소속	-10.0217
▁방법을	-10.0221
젠	-10.0226
▁정책을	-10.0232
▁여기서	-10.0238
징	-10.0242
▁있으면	-10.0242
상품	-10.0245
만을	-10.0251
▁염	-10.0256
▁확진	-10.0258
가량	-10.0262
벽	-10.0264
됐고	-10.0271
월에는	-10.0272
▁내일	-10.0276
하라	-10.0281
지에	-10.0282
하려	-10.0283
▁신작	-10.0296
부문	-10.0297
▁장애인	-10.0301
겨	-10.0301
▁공정	-10.0301
▁많았다	-10.0302
speaker	-10.0302
▁했는데	-10.0304
일간	-10.0307
▁하여	-10.0309
▁증	-10.0311
▁핀테크	-10.0312
▁참사	-10.0314
▁상태에서	-10.0317
▁증가한	-10.0319
OS	-10.032
▁항공	-10.0321
▁복귀	-10.0324
법인	-10.0325
억원의	-10.0328
▁자료를	-10.0332
▁좌	-10.0332
▁답	-10.0334
kha	-10.0341
▁점점	-10.0342
▁문제에	-10.0349
▁요금	-10.0354
▁처벌	-10.0356
▁초청	-10.0358
▁유명한	-10.0359
▁등장하는	-10.0362
중국	-10.0368
▁아동	-10.0374
▁블루	-10.0379
▁있다면	-10.038
홀	-10.0382
▁대화를	-10.0383
▁3000	-10.0388
▁혐의를	-10.0389
▁신설	-10.0391
틀	-10.0391
▁낼	-10.0391
▁최대한	-10.0392
▁방법	-10.0392
▁의혹	-10.0392
▁사용해	-10.0396
▁우수한	-10.0398
▁달하는	-10.04
▁검증	-10.04
IoT	-10.0404
우스	-10.0405
서는	-10.0412
▁몬스터	-10.0418
▁전주	-10.0424
▁내고	-10.0425
기준	-10.0425
▁있으나	-10.0427
▁총괄	-10.0428
▁그때	-10.0428
▁나누고	-10.0431
▁기능이	-10.0431
지고	-10.0432
▁다운로드	-10.0436
▁위성	-10.0438
▁만들었다	-10.0441
▁중간	-10.0441
었던	-10.0441
려는	-10.0443
▁따로	-10.0448
▁본격적으로	-10.0449
▁구분	-10.045
▁강제	-10.045
리그	-10.0454
▁개방	-10.0456
▁관심	-10.0458
▁결합	-10.0458
▁철도	-10.0461
(),	-10.0462
연합	-10.0464
▁자사	-10.0464
▁오랜	-10.0465
데이	-10.047
▁징역	-10.0471
▁있어야	-10.0473
▁남은	-10.0479
없는	-10.0481
▁넥슨	-10.0481
es	-10.0482
▁대사	-10.0483
▁건축	-10.0486
▁한다며	-10.0486
시티	-10.0492
▁만한	-10.0497
▁가격이	-10.0497
판매	-10.0498
▁평소	-10.0505
▁뒷	-10.0506
▁벗어나	-10.0507
▁대만	-10.0507
▁중요	-10.0509
▁발행	-10.0511
드는	-10.0511
▁아예	-10.0511
▁버전	-10.0516
▁작성	-10.0524
▁성인	-10.0525
▁취	-10.0525
▁연구개발	-10.0529
훈련	-10.0532
▁of	-10.0533
▁만난	-10.0539
▁휴	-10.0542
전문	-10.0549
▁모바일웹	-10.0552
▁잠시	-10.0559
Q	-10.0563
▁곳에	-10.0564
벨	-10.0565
▁접속	-10.0567
▁실현	-10.0568
▁전략을	-10.0569
▁아니냐는	-10.0577
▁퍼	-10.0582
▁북미	-10.0593
쪽	-10.0602
▁경계	-10.0607
▁상용화	-10.0613
잔	-10.0619
천만	-10.0622
▁엄마	-10.0624
▁사업에	-10.0625
▁생존	-10.0626
랜드	-10.0627
닉	-10.0631
넷	-10.0632
▁펀드	-10.0642
되	-10.0642
▁평화	-10.0643
▁생태계	-10.0643
▁소설	-10.0644
▁수집	-10.0652
밖에	-10.0654
▁영입	-10.0655
칸	-10.0656
▁실천	-10.066
쯤	-10.0661
▁그리	-10.0663
시에	-10.0664
하였으며	-10.0675
▁협력을	-10.0676
겠습니다	-10.0683
▁선언	-10.0684
▁33	-10.0686
사고	-10.0686
▁시작된	-10.0688
▁케이블	-10.0693
▁북한은	-10.0694
멸	-10.0696
▁부정	-10.0702
▁없습니다	-10.0702
▁통신사	-10.0705
▁본인	-10.0708
▁머	-10.071
▁사이에서	-10.0712
▁트위터	-10.0714
▁2004	-10.0723
▁후에	-10.0724
▁유전자	-10.0728
▁옛	-10.0732
키로	-10.0733
▁제거	-10.0736
▁2020	-10.0737
▁열었다	-10.0741
자들이	-10.0742
공식	-10.0743
▁배출	-10.0752
▁범	-10.0756
▁겨울	-10.0756
▁번역	-10.0764
▁정부와	-10.0766
▁대학생	-10.0768
▁마음	-10.0773
▁수는	-10.078
▁칼	-10.0781
▁야구	-10.0782
▁뉴스진	-10.0783
▁웹툰	-10.0785
주기	-10.0792
▁괴	-10.0793
▁만화	-10.0795
이면	-10.0799
여개	-10.08
▁글을	-10.08
800	-10.0807
하나	-10.0809
▁기자가	-10.081
닝	-10.0816
▁자산	-10.0819
페이	-10.0822
▁개별	-10.0824
▁어렵다	-10.0824
▁전송	-10.0828
▁진행하는	-10.0828
▁본사	-10.083
▁쓰고	-10.083
샤	-10.0832
릭	-10.0832
▁고객이	-10.0833
득	-10.084
▁MS	-10.084
▁CCTV	-10.0845
▁어린	-10.0845
▁초반	-10.0848
▁기획재정부	-10.0857
▁완	-10.0858
빙	-10.0861
▁요즘	-10.0861
치는	-10.0862
▁후원	-10.0863
▁임명	-10.0871
▁서구	-10.0872
운영	-10.0876
▁본다	-10.0877
▁적용해	-10.0882
▁너	-10.0884
▁의미가	-10.0892
▁합동	-10.0892
좌	-10.0895
의원	-10.0895
몬	-10.0898
▁문화를	-10.0898
▁이용하는	-10.0904
▁상태다	-10.0913
▁늘어난	-10.0921
▁올라	-10.0927
같은	-10.0927
되었으며	-10.093
▁개발을	-10.0932
▁메인	-10.0933
▁메모리	-10.0933
▁필수	-10.0944
▁동의	-10.0944
▁모집	-10.0945
▁업그레이드	-10.0947
▁못해	-10.0947
▁개발자	-10.0949
▁연동	-10.095
▁당내	-10.095
엄	-10.0956
▁기념해	-10.0957
▁침해	-10.0959
▁과정	-10.0961
▁36	-10.0969
▁압박	-10.0971
▁심각한	-10.0975
▁선보일	-10.0975
▁침	-10.0979
▁운전	-10.098
▁필	-10.0982
포럼	-10.0982
▁케	-10.0984
▁사건이	-10.0991
▁다수	-10.0996
▁관측	-10.1003
▁컬러	-10.1004
▁모여	-10.1005
▁머리	-10.1008
▁간의	-10.1009
탕	-10.102
됐으며	-10.1021
▁이들이	-10.1021
▁사례	-10.1024
x	-10.1031
▁편성	-10.1032
▁사기	-10.1035
▁사람들	-10.1037
▁방식을	-10.1038
▁느낄	-10.1042
▁놓	-10.1043
▁금리	-10.1043
한테	-10.1045
▁덕	-10.1046
▁보급	-10.1047
▁니	-10.1058
▁열린다	-10.1059
▁박사	-10.106
빛	-10.1069
▁논란	-10.1072
▁비판했다	-10.1075
▁국내에서	-10.1075
▁인권	-10.1076
▁현역	-10.1084
▁감시	-10.1087
▁조치를	-10.1094
▁중요하다	-10.1095
▁RD	-10.1098
▁대표이사	-10.1098
▁출시를	-10.1099
스를	-10.111
▁하늘	-10.1113
▁세트	-10.1114
돼야	-10.1114
▁에어	-10.1117
▁노선	-10.1124
스러운	-10.1127
▁언제	-10.1129
55	-10.113
▁첨단	-10.1131
▁양산	-10.1132
▁보유하고	-10.1138
▁발생하는	-10.1139
스가	-10.1139
▁수요가	-10.114
도를	-10.1149
플러스	-10.115
▁속도를	-10.115
▁중소	-10.1152
▁지자체	-10.116
▁것인지	-10.1164
▁요리	-10.118
한다면	-10.1181
▁친환경	-10.1182
하면서도	-10.1188
다면	-10.1194
천원	-10.1194
▁연합	-10.1196
능	-10.1199
▁JTBC	-10.1202
▁획득	-10.1203
이라면	-10.1203
▁공공기관	-10.1205
큐	-10.1207
트리	-10.1214
▁소식을	-10.1214
▁어려움을	-10.1219
us	-10.122
업계	-10.1221
▁늘고	-10.1223
▁아니고	-10.1224
▁환경을	-10.1224
▁법인	-10.1226
▁옮겨	-10.1227
▁뭐	-10.1229
▁지속적인	-10.1233
▁파견	-10.1234
▁이래	-10.1244
▁등도	-10.1248
냈다	-10.1249
▁진행되는	-10.1249
▁백화점	-10.1251
▁보완	-10.1253
▁가전	-10.1255
종합	-10.1257
함에	-10.1262
재단	-10.127
▁관계를	-10.1274
▁제휴	-10.1276
▁부처	-10.1276
▁매체	-10.1278
준다	-10.128
▁사드	-10.1282
▁기회	-10.1283
▁지급한다	-10.1288
▁민족	-10.1288
▁앱을	-10.1289
▁학생들이	-10.1292
▁방안	-10.1294
▁파악	-10.1299
체계	-10.1299
▁캐나다	-10.1305
▁축	-10.1309
▁공개된	-10.1309
▁문서	-10.1312
▁상위	-10.1318
▁흑	-10.1321
됐던	-10.1326
▁청구	-10.1328
▁가슴	-10.1329
▁초대	-10.133
센	-10.133
▁정비	-10.1331
▁역량을	-10.1331
▁가스	-10.1332
▁폭행	-10.1334
▁했고	-10.1336
받은	-10.1336
▁인재	-10.1337
▁향상	-10.1344
▁방향으로	-10.1345
▁축소	-10.1349
▁한층	-10.135
▁등급	-10.1353
지가	-10.1354
▁적극적인	-10.1357
▁선임	-10.1359
▁인사를	-10.136
▁상당한	-10.1361
▁공포	-10.1361
▁약속	-10.1364
해진	-10.1367
▁이종걸	-10.1368
▁아이템을	-10.1373
▁무역	-10.138
_	-10.1381
▁가능성도	-10.1385
▁의지를	-10.1386
시아	-10.1395
▁사건을	-10.1397
▁업무를	-10.1398
▁말씀	-10.14
문제	-10.1404
▁깊은	-10.1409
▁콜	-10.1412
종의	-10.1412
▁선보인	-10.1412
▁목소리를	-10.1414
엽	-10.1419
▁의미를	-10.1425
▁술	-10.1429
▁문제로	-10.143
▁아닌가	-10.1439
중인	-10.1443
▁임시	-10.1444
▁경고	-10.1446
▁포인트	-10.1447
▁진행할	-10.1449
▁얘기를	-10.145
▁수십	-10.1453
▁나아가	-10.1455
▁대로	-10.1455
▁형태의	-10.1459
▁성장을	-10.1463
▁실내	-10.1464
▁이벤트는	-10.1464
▁소형	-10.1471
육	-10.1485
▁단순히	-10.1487
▁기반의	-10.1488
호텔	-10.1491
팩	-10.1492
▁세금	-10.1493
▁문자	-10.1495
▁지나	-10.1496
▁목적으로	-10.1498
▁졸업	-10.1503
▁주도	-10.1504
▁형태	-10.1504
▁보이지	-10.1505
▁공항	-10.1505
▁결과가	-10.1506
▁규모로	-10.1507
600	-10.1508
▁로마	-10.1516
▁보스	-10.152
▁센터	-10.1523
▁알아	-10.1524
▁위로	-10.1525
▁왼쪽	-10.1527
▁악화	-10.1528
▁부사장	-10.1533
▁활약	-10.1534
▁행복	-10.1536
▁계열사	-10.1537
▁비중이	-10.1539
▁분야의	-10.1541
▁공부	-10.1547
▁보여주는	-10.1552
▁논	-10.1554
▁삭제	-10.1555
▁추세	-10.156
▁주목	-10.1563
→	-10.157
45	-10.157
▁이중	-10.1573
&	-10.1579
▁파워	-10.158
▁최경환	-10.1583
▁끊	-10.1587
▁절감	-10.1587
▁받게	-10.1591
le	-10.1591
▁유리	-10.1591
▁올해는	-10.1593
▁제조사	-10.1599
▁국정원	-10.1601
틴	-10.1607
▁교육을	-10.1608
▁도쿄	-10.1614
께	-10.1617
▁현금	-10.1622
▁필요하다고	-10.1624
▁전문가들은	-10.1624
▁맹	-10.1629
▁세대	-10.163
▁그래픽	-10.1631
어요	-10.1636
▁참석했다	-10.1638
▁황교안	-10.1644
▁교과서	-10.1645
▁평양	-10.1645
▁패배	-10.1649
▁쪽	-10.165
▁근로자	-10.1653
째	-10.1664
▁된다고	-10.1667
▁부분을	-10.1669
▁경남기업	-10.1673
▁임원	-10.1676
▁힘든	-10.1677
33	-10.1678
▁마치고	-10.1679
밥	-10.1682
▁산업혁명	-10.1683
▁그러니까	-10.1684
▁후보는	-10.1686
?"	-10.1689
▁보건복지부	-10.1689
▁경찰에	-10.169
▁있었고	-10.1691
▁이상이	-10.1691
▁의견이	-10.1691
웨어	-10.1694
샵	-10.1697
펀드	-10.1698
▁비밀	-10.1698
랩	-10.1698
▁진보	-10.1702
▁몰	-10.1703
만대	-10.1703
▁정권	-10.171
▁캠페인	-10.1712
▁절대	-10.1713
▁연금	-10.1715
▁동료	-10.1716
▁체계	-10.1718
▁레드	-10.1722
▁채택	-10.1724
▁업데이트를	-10.1733
허	-10.1735
▁동시	-10.1735
▁누가	-10.1739
▁출석	-10.174
▁내용의	-10.1741
▁시범	-10.1743
더라도	-10.1744
▁강하게	-10.1748
▁포털	-10.1757
▁빛	-10.1763
사건	-10.1768
▁방지	-10.1771
명에게	-10.1772
전쟁	-10.1778
죽	-10.1778
풀	-10.1779
▁도심	-10.1782
▁제정	-10.1787
▁65	-10.1793
군은	-10.1793
라인	-10.1801
▁세포	-10.1805
▁않게	-10.1807
주택	-10.1809
▁총리는	-10.1812
하려고	-10.1812
▁바꿔	-10.1813
장과	-10.1813
▁엄청난	-10.1821
▁이게	-10.1821
▁같습니다	-10.1823
시민	-10.1823
▁원인	-10.1823
▁승인	-10.1824
▁단독	-10.1829
▁동일한	-10.1829
보고	-10.1832
이라도	-10.1832
쳤다	-10.1838
▁들었다	-10.1839
었고	-10.184
▁신문	-10.1849
▁안에서	-10.1849
▁비례대표	-10.1851
▁부회장	-10.1853
▁던전	-10.1858
제가	-10.1859
▁나선다	-10.1863
▁때문	-10.1864
▁담긴	-10.1864
▁레벨	-10.1871
▁맨	-10.1875
만으로	-10.1876
▁고려해	-10.1876
▁나타나	-10.1877
▁마법	-10.1878
MS	-10.1878
단은	-10.188
▁얻고	-10.188
▁가서	-10.1888
▁당부했다	-10.1889
▁대거	-10.1892
▁중심의	-10.1895
io	-10.1897
▁패키지	-10.1898
▁선고	-10.1898
웨이	-10.1898
“	-10.1899
튼	-10.1902
▁집행	-10.1903
구역	-10.1903
거든요	-10.1904
▁공격을	-10.1905
▁정의당	-10.1906
▁회사는	-10.191
▁미세먼지	-10.1912
▁입법	-10.1917
면서도	-10.192
▁이것은	-10.1927
▁신당	-10.1931
응	-10.1932
▁곳에서	-10.1934
▁색	-10.1941
▁잠	-10.1948
수는	-10.1959
▁체포	-10.196
해온	-10.1963
▁오프라인	-10.1969
▁항공기	-10.1969
셔	-10.1971
ar	-10.1971
900	-10.1973
▁임직원	-10.1974
▁높였다	-10.1974
▁기대된다	-10.1975
▁참여하는	-10.1978
▁탑재	-10.1986
자와	-10.1986
하려면	-10.1988
▁정기	-10.1988
▁공기	-10.1995
▁아니면	-10.1998
프로	-10.1998
▁해제	-10.1998
▁출전	-10.2004
▁잡고	-10.2006
▁폐쇄	-10.201
▁치료를	-10.2013
▁덜	-10.2014
▁출발	-10.2015
▁55	-10.2017
사로	-10.2018
노컷뉴스	-10.202
z	-10.2024
오른쪽	-10.2026
▁재산	-10.2027
▁성능을	-10.2028
▁반발	-10.2028
▁돌파	-10.2031
▁38	-10.2033
▁경선	-10.2036
▁엄	-10.2037
▁별도의	-10.2037
700	-10.2045
▁사용한	-10.2045
is	-10.2046
▁마크	-10.2047
▁운영하고	-10.2049
섬	-10.2049
▁아무	-10.2061
선거	-10.2062
▁떨어져	-10.2065
▁자동으로	-10.2066
▁현실	-10.2067
▁한정	-10.2068
▁있었지만	-10.2068
▁의원과	-10.2072
▁골드	-10.2072
▁무엇보다	-10.2073
2015	-10.2074
▁토론	-10.2075
들로	-10.2084
▁범위	-10.2085
▁선보이고	-10.2085
▁스마트폰을	-10.2085
▁덕분에	-10.2086
차례	-10.2088
48	-10.2088
▁파트너	-10.2089
▁개설	-10.2089
▁비교적	-10.2091
상의	-10.2091
▁깨	-10.2093
▁갖추고	-10.2095
하다는	-10.2097
▁사고가	-10.2098
▁주거	-10.21
▁측면에서	-10.2102
▁2002	-10.2103
▁교육부	-10.2108
▁법적	-10.2113
▁부담을	-10.2113
빌	-10.2114
2000	-10.2116
▁구매할	-10.2117
▁호주	-10.2119
세가	-10.2123
▁화장품	-10.2125
▁공모	-10.2125
복지	-10.2125
▁이제는	-10.2127
하다가	-10.2127
▁출시했다	-10.2133
퇴	-10.2139
▁밴드	-10.2141
▁보관	-10.2141
▁소개했다	-10.2147
▁배달	-10.2151
▁대표를	-10.2152
▁연대	-10.2155
▁트	-10.2156
▁게임은	-10.2162
대는	-10.2163
시험	-10.2166
▁열렸다	-10.2166
▁말고	-10.2167
▁그만큼	-10.2167
▁체제	-10.2171
▁혈	-10.2181
▁찬성	-10.2186
종을	-10.2188
▁이들의	-10.2196
▁찬	-10.2198
▁바란다	-10.2203
▁인간의	-10.2203
▁지배	-10.2207
▁동부	-10.2215
▁이행	-10.2216
▁이상을	-10.2219
▁플러스	-10.2225
에너지	-10.2225
▁신뢰	-10.2225
▁순위	-10.2227
▁진행했다	-10.2228
룸	-10.2231
▁현행	-10.2234
만이	-10.2234
▁대결	-10.2238
부대	-10.224
▁본격	-10.2241
▁중동	-10.2242
▁김성	-10.2247
꽃	-10.2253
▁떠	-10.2254
전에	-10.2256
▁추적	-10.2258
▁s	-10.2264
콜	-10.2264
▁기회가	-10.2265
▁불안	-10.2266
분석	-10.2271
▁댓글	-10.2272
▁경향신문은	-10.2274
▁경우는	-10.2275
▁권력	-10.2278
▁최근에는	-10.2283
▁광복	-10.2288
▁서초구	-10.2302
w	-10.2302
죄	-10.2304
▁차별화된	-10.2305
▁120	-10.2306
▁포스코	-10.231
▁2003	-10.2314
▁계획이라고	-10.2314
▁방문한	-10.2315
▁진짜	-10.2321
▁양국	-10.2329
▁미션	-10.233
▁골프	-10.233
▁아베	-10.2332
▁산하	-10.2333
▁해양	-10.2334
▁잡아	-10.2336
▁i	-10.2337
▁응	-10.2343
▁대변인은	-10.2346
▁발달	-10.2349
▁주파수	-10.2353
▁공군	-10.2356
▁없다며	-10.2356
▁식으로	-10.2361
회를	-10.2364
▁평택	-10.2369
▁놀	-10.2373
▁엔	-10.2374
▁현대차	-10.2375
▁국민연금	-10.2382
▁화성	-10.2384
▁마감	-10.2389
원의	-10.2391
▁매출은	-10.2393
▁부과	-10.2394
하다고	-10.2395
▁올렸다	-10.2399
▁메뉴	-10.2402
65	-10.2405
▁궁	-10.241
팬	-10.241
▁휴대전화	-10.241
▁질환	-10.2411
하라고	-10.2416
▁브	-10.2418
▁짜	-10.2419
▁일반적으로	-10.242
▁의혹을	-10.2421
▁있는데요	-10.2421
행사	-10.2422
▁사용자가	-10.2423
▁제외	-10.2431
모델	-10.2432
유플러스는	-10.2432
▁전기차	-10.2435
▁수익을	-10.2438
▁헌법	-10.2439
▁he	-10.244
9000	-10.2441
PC	-10.2441
▁무려	-10.2442
세상과	-10.2442
▁슬	-10.2445
▁오른쪽	-10.2445
▁마련된	-10.2448
▁아마존	-10.2451
▁지닌	-10.2452
▁상무	-10.2452
▁MMORPG	-10.2457
▁만족	-10.2458
▁나설	-10.2461
행위	-10.2468
위로	-10.2469
▁개발사	-10.2473
오는	-10.2484
▁빌	-10.2489
스와	-10.249
▁공개한	-10.2494
▁부분은	-10.2495
▁브라질	-10.2495
화학	-10.2496
▁지역을	-10.2497
해도	-10.2501
▁흡수	-10.2501
▁정치인	-10.2507
▁이사장	-10.251
▁라디오	-10.251
▁빅	-10.2511
▁밥	-10.2516
마저	-10.2518
▁서비스가	-10.2526
▁부진	-10.2528
▁막기	-10.2531
▁GS	-10.2535
군이	-10.2536
▁개인정보	-10.2538
400	-10.2543
▁카카오톡	-10.2546
검사	-10.255
조직	-10.2551
씨를	-10.2557
▁건립	-10.2557
▁돌아가	-10.2558
▁지적이	-10.2558
연대	-10.2561
릿	-10.2563
▁여론조사	-10.2569
an	-10.2573
▁스피커	-10.2574
▁고객에게	-10.2576
일본	-10.2577
량을	-10.2581
▁레이	-10.2585
▁추첨을	-10.2588
▁리더	-10.2588
▁조건	-10.2589
▁과연	-10.2589
관광	-10.2597
▁부족한	-10.2597
▁중에서	-10.2598
수록	-10.2598
▁당의	-10.2607
▁태블릿	-10.2607
▁for	-10.2612
▁강조	-10.2614
▁종교	-10.2615
▁적지	-10.2616
▁기록한	-10.2617
▁OLED	-10.2622
▁고정	-10.2625
▁개입	-10.2628
▁그를	-10.263
▁질병	-10.2639
▁농업	-10.2641
▁크	-10.2643
▁부사장은	-10.2643
인데요	-10.2648
▁분야에	-10.2651
▁모델을	-10.2654
▁이름으로	-10.2654
▁얻어	-10.2659
▁토대로	-10.266
▁올려	-10.266
▁예정인	-10.2663
▁즉시	-10.2664
▁숲	-10.2666
▁상당	-10.2668
자원	-10.267
▁찾기	-10.2672
베이	-10.2673
▁높이는	-10.2675
▁원유철	-10.2676
▁이르는	-10.2681
▁부분에	-10.2685
핑	-10.2685
ia	-10.2686
공장	-10.2697
re	-10.27
▁매출이	-10.2706
▁있	-10.2709
둥	-10.271
▁싶다	-10.2711
▁KB	-10.2712
▁이름이	-10.2717
49	-10.2718
▁풍부한	-10.2719
▁아마	-10.2725
▁이재	-10.273
▁이미지를	-10.2731
▁미래창조과학부	-10.2732
▁게다가	-10.2742
장비	-10.2743
▁협업	-10.2747
▁64	-10.2754
▁요구하는	-10.2754
▁듯한	-10.2757
뉴	-10.276
34	-10.2761
▁그것은	-10.2762
치를	-10.2763
▁저렴한	-10.2769
▁작전	-10.277
미국	-10.2772
▁애플은	-10.2774
▁분석했다	-10.2778
▁좋지	-10.278
▁유일한	-10.278
▁노트북	-10.278
으면서	-10.2782
▁기업들이	-10.2784
▁직무	-10.2785
▁맡고	-10.2786
▁것이란	-10.279
el	-10.2791
했	-10.2792
▁라이	-10.2794
▁워	-10.2799
▁일은	-10.2801
▁행사는	-10.2801
▁주한	-10.2802
en	-10.2802
▁소장	-10.2807
▁의회	-10.2809
▁소송	-10.2809
▁뒤에	-10.2811
▁담배	-10.2813
▁기어	-10.2813
▁통계	-10.2815
▁총장	-10.2816
▁전시회	-10.2818
▁비교해	-10.2825
VR	-10.2826
보호	-10.283
▁점은	-10.2831
▁쉬	-10.2831
축제	-10.2832
Z	-10.2837
년생	-10.2838
▁일대	-10.284
리를	-10.2845
▁가졌다	-10.2845
▁생성	-10.285
공간	-10.2852
▁이어질	-10.2853
▁혼자	-10.2856
▁지식	-10.2856
▁넣어	-10.2861
▁분명히	-10.2862
▁원전	-10.2862
▁희	-10.2864
▁재생	-10.2867
▁그것을	-10.2868
▁녹	-10.287
▁고위	-10.2872
▁수석	-10.2873
▁민주당	-10.2874
월드	-10.2875
▁로켓	-10.2877
▁결정을	-10.2879
율이	-10.2881
▁기념촬영을	-10.2893
▁비리	-10.2893
▁부산시	-10.2898
64	-10.2902
▁완료	-10.2902
컨	-10.2911
▁트위터페이스북	-10.2912
▁내달	-10.2912
▁남부	-10.2912
▁동원	-10.2915
▁풀어	-10.2915
▁그래도	-10.2918
in	-10.2921
▁것이었다	-10.2923
▁대중	-10.2925
박스	-10.2926
학회	-10.2926
▁이론	-10.2934
▁곳은	-10.2938
고등학교	-10.2944
▁회의를	-10.2944
▁시연	-10.2948
▁요소	-10.2949
38	-10.2949
▁장착	-10.2954
▁바람	-10.2959
▁어머니	-10.2961
▁세계적인	-10.2965
▁개념	-10.2966
▁별로	-10.2966
▁답했다	-10.2975
▁안정적인	-10.298
▁라이브	-10.2984
실에서	-10.2986
고객	-10.2986
▁인텔	-10.2992
▁이끌어	-10.2993
맥	-10.2997
▁눈을	-10.3001
▁주행	-10.3002
▁변화가	-10.3004
▁이유가	-10.3006
▁오피스텔	-10.3006
▁그것이	-10.3007
화된	-10.3007
대에	-10.3007
▁늘어	-10.3009
▁모니터링	-10.301
▁주가	-10.3011
▁정착	-10.3013
금을	-10.3016
▁인기가	-10.3016
▁참여할	-10.302
점이	-10.302
▁입고	-10.3023
▁행위	-10.3024
▁작동	-10.3024
▁벌이고	-10.3026
▁장거리	-10.3029
▁연구소	-10.3034
▁생각하는	-10.3035
▁둘러싼	-10.3037
▁태양	-10.3037
장에	-10.3038
▁대한항공	-10.3041
▁프	-10.3042
▁편집	-10.3042
▁실무	-10.3043
▁자녀	-10.3048
더니	-10.3048
▁자살	-10.3053
▁모르는	-10.3053
▁직장	-10.3053
제로	-10.3055
▁파일	-10.3055
▁넷마블	-10.3055
기능	-10.3058
▁없지만	-10.3058
단이	-10.3059
▁점도	-10.306
▁애플리케이션	-10.3065
▁발전을	-10.3066
▁자리에	-10.3067
▁박원순	-10.3068
▁입력	-10.3074
▁방향	-10.3077
시까지	-10.3078
▁1990	-10.3085
럼	-10.3092
음을	-10.3094
▁물을	-10.3095
엠	-10.3095
▁한화	-10.3098
▁실시간으로	-10.3098
▁미군	-10.3099
▁문학	-10.3099
▁달라	-10.31
▁부활	-10.3103
▁탑승	-10.3105
▁샤	-10.3108
▁극대화	-10.3111
▁플레이어	-10.3112
▁연방	-10.3112
▁Y	-10.3116
▁스타일	-10.3117
77	-10.3123
▁아름다운	-10.3126
▁분열	-10.3126
▁응원	-10.3126
▁참여해	-10.3127
▁포항	-10.3132
▁마련했다	-10.3135
▁장소	-10.314
▁먹고	-10.3141
▁설치된	-10.3149
DB	-10.3151
▁조명	-10.3155
▁널리	-10.3158
▁방법으로	-10.3159
채널	-10.316
▁짧은	-10.3162
▁혁명	-10.3163
▁노트	-10.3165
▁싱글	-10.3166
▁공동으로	-10.3166
로운	-10.3167
36	-10.3177
▁뿌리	-10.3179
▁일상	-10.318
▁비용을	-10.3182
▁부상	-10.3184
▁미국과	-10.319
▁추정	-10.319
▁이것이	-10.319
▁DB	-10.3193
▁미래를	-10.3197
▁알게	-10.3198
텐	-10.32
자인	-10.3201
▁품	-10.3201
▁들어서	-10.3204
▁교회	-10.3204
▁얼	-10.3206
▁맞게	-10.3206
벤	-10.3206
▁엣지	-10.321
것	-10.3213
▁상가	-10.3214
항공	-10.322
▁새해	-10.3223
▁솔루션을	-10.3225
분께	-10.3226
용으로	-10.3226
▁광화문	-10.3229
▁물질	-10.323
롱	-10.3232
▁패널	-10.3232
▁극복	-10.3232
센터에서	-10.3236
간의	-10.3241
▁종류	-10.3241
린다	-10.3242
as	-10.3243
▁자극	-10.3244
였습니다	-10.3246
▁삶을	-10.3247
▁특징	-10.3249
▁자원	-10.3252
▁걸어	-10.3254
32	-10.3255
▁감정	-10.326
▁사람들의	-10.3266
▁북측	-10.3267
▁만들어진	-10.3269
▁커지고	-10.3271
▁나중에	-10.3271
▁올린	-10.3272
▁셀	-10.3275
광고	-10.3276
IS	-10.3278
▁흥행	-10.328
▁쌀	-10.328
▁넘게	-10.3281
▁내는	-10.3282
▁먹는	-10.3283
▁세종시	-10.3287
▁해당하는	-10.3288
렛	-10.3295
▁충	-10.3296
지지	-10.3296
▁진영	-10.3298
▁뒤를	-10.3301
콤	-10.3305
▁끼	-10.3308
▁착용	-10.3309
▁되기	-10.3315
▁세종	-10.3317
▁열심히	-10.3323
컬	-10.3325
▁된다는	-10.3326
인이	-10.3329
등급	-10.3332
▁페이	-10.3336
▁제일	-10.3338
▁쇼핑몰	-10.3344
▁신체	-10.3347
▁고대	-10.3351
▁때도	-10.3353
▁직전	-10.3354
▁거죠	-10.3358
▁한국인	-10.3359
▁직원들이	-10.3362
▁추모	-10.3363
▁평가했다	-10.3365
▁삼성전자의	-10.3365
▁연주	-10.3366
▁죄	-10.3366
▁플랫폼을	-10.3378
▁것이고	-10.3378
▁클럽	-10.3381
▁꺼	-10.3386
잡	-10.339
▁헤럴드경제	-10.339
▁지지를	-10.3391
ch	-10.3393
▁판결	-10.3397
▁살아	-10.3401
▁등이다	-10.3402
▁꾸	-10.3404
▁들여	-10.3409
▁청약	-10.341
▁몸을	-10.3412
틱	-10.3415
▁진행됐다	-10.3415
▁사진은	-10.3419
▁벽	-10.3419
44	-10.3428
▁입은	-10.343
▁장르	-10.3433
▁퇴	-10.3437
레스	-10.3439
▁현재는	-10.3439
멘	-10.3441
지로	-10.3444
▁홀	-10.3445
질환	-10.3446
자동차	-10.3451
▁않기	-10.3452
▁비디오	-10.3456
이어서	-10.346
렬	-10.346
비가	-10.3463
▁차기	-10.3464
▁갑	-10.3466
▁마이	-10.3467
만의	-10.347
▁메시지를	-10.3472
▁원장은	-10.3477
개혁	-10.3478
▁점유율	-10.3479
▁시점	-10.348
▁의원을	-10.3482
능력	-10.3487
만원대	-10.3487
▁파티	-10.3494
▁연구를	-10.3496
▁사전예약	-10.3498
▁옷	-10.35
▁동아일보	-10.3503
▁장면	-10.3507
▁가능하며	-10.3509
으로는	-10.3512
37	-10.3515
▁당일	-10.3516
▁못할	-10.3521
▁원장	-10.3522
▁민주	-10.3524
▁아이디어	-10.3525
킨	-10.3525
▁고문	-10.3527
▁창원	-10.353
▁전부터	-10.3534
▁하자	-10.3535
관련	-10.3535
시장에서	-10.3536
테크	-10.3537
전에서	-10.3538
▁대처	-10.354
▁조절	-10.3541
▁이전에	-10.3543
영화	-10.3548
▁끝난	-10.3549
▁선박	-10.355
▁멤버	-10.3551
명과	-10.3554
▁잇따라	-10.3559
▁규모가	-10.3561
여성	-10.3562
소득	-10.3563
▁추진하고	-10.3564
47	-10.3565
▁파리	-10.3566
▁재난	-10.3568
푸	-10.3569
▁인도네시아	-10.3569
▁가로	-10.357
▁임대	-10.3574
▁그러면	-10.358
장의	-10.3583
▁차지하는	-10.3586
▁청주	-10.3596
차원	-10.3597
▁인터뷰에서	-10.3601
활동을	-10.3601
▁37	-10.3602
▁그들의	-10.3611
▁그녀는	-10.3613
자금	-10.3616
밍	-10.3617
짜리	-10.3618
0	-10.3622
▁월드컵	-10.3622
▁부지	-10.3625
해졌다	-10.3627
지수	-10.3631
명에	-10.3631
▁미국에서	-10.3633
▁예비	-10.3637
46	-10.3641
▁비난	-10.3643
▁바이러스	-10.3644
▁내린	-10.3645
00	-10.3647
▁투자자	-10.3652
75	-10.3654
▁심장	-10.3654
증권	-10.3656
▁화학	-10.366
▁48	-10.3661
▁냈다	-10.3663
뷰	-10.3663
자리	-10.3664
▁마지막으로	-10.3665
장치	-10.3665
▁관광객	-10.3669
▁말하는	-10.3669
에만	-10.367
▁코스	-10.3671
▁당연히	-10.3673
▁밝혀	-10.3674
▁높아	-10.3678
▁완전	-10.3682
▁삼성서울병원	-10.3682
▁분위기를	-10.3685
▁가상현실	-10.3687
▁태국	-10.3689
주가	-10.3691
▁점이다	-10.3693
▁살고	-10.3702
▁u	-10.3708
▁별도	-10.3708
▁활성화를	-10.371
▁재판	-10.371
▁제품이	-10.3713
비용	-10.3713
▁형사	-10.3715
▁단순	-10.3722
잠	-10.3725
▁축하	-10.3729
▁동생	-10.3731
▁마리	-10.3733
하고자	-10.3733
기지	-10.3739
▁주차	-10.3739
▁까	-10.374
▁발생할	-10.3749
▁시민들이	-10.375
관을	-10.3753
▁받	-10.3758
▁초등학교	-10.376
특	-10.3762
▁근거	-10.3762
▁기술로	-10.3769
▁상태로	-10.3776
▁날씨	-10.3781
▁나눔	-10.3783
▁기본적으로	-10.3783
나는	-10.379
▁수사를	-10.3791
▁맡은	-10.3792
▁경주	-10.3798
▁국회법	-10.3798
▁경찰이	-10.38
▁적용한	-10.38
년이	-10.38
▁넓은	-10.3801
▁논문	-10.3801
인증	-10.381
▁빼	-10.3811
공단	-10.3815
▁높여	-10.3817
▁누구	-10.3818
찰	-10.382
▁붕괴	-10.3821
▁김대중	-10.3821
▁합류	-10.3821
56	-10.3823
▁높이고	-10.3823
▁엠	-10.3826
생산	-10.3826
▁리니지	-10.3827
▁약간	-10.3829
KT	-10.3832
▁얻은	-10.3832
▁메시지	-10.3837
▁콘	-10.3837
먹	-10.3837
▁사례가	-10.3839
▁즐기는	-10.384
▁애플이	-10.3843
둔	-10.3851
▁자료사진	-10.3851
▁중국에서	-10.3854
▁흔히	-10.3854
▁휘	-10.3854
▁연휴	-10.3859
▁절차를	-10.3864
마켓	-10.3865
상담	-10.3868
조정	-10.3869
▁자신	-10.3871
기와	-10.3872
▁응답	-10.3877
▁겪고	-10.3878
▁이외에도	-10.388
▁변신	-10.3882
▁안정	-10.3886
▁총선에서	-10.3887
▁업	-10.3888
▁부담이	-10.3889
▁나오	-10.3895
기반	-10.3896
▁계기가	-10.3897
▁폭력	-10.3897
▁전망했다	-10.39
대책	-10.3902
미디어	-10.3902
▁개정안	-10.3902
▁다르다	-10.3903
▁촉구	-10.3904
ro	-10.3911
▁대학교	-10.3913
사항	-10.3915
59	-10.3924
▁이틀	-10.3925
▁재미를	-10.3926
▁한일	-10.393
톡	-10.393
받아	-10.3931
▁탄생	-10.3935
개가	-10.3935
닷컴	-10.3935
▁차별	-10.3936
리가	-10.3936
▁쉬운	-10.3937
▁분기	-10.3945
▁되는데	-10.3946
39	-10.3947
▁전공	-10.3953
kyughyag	-10.3954
▁보여준다	-10.396
화가	-10.3961
들어	-10.3964
▁진료	-10.3967
념	-10.3968
기기	-10.3969
기획	-10.3969
▁블로그	-10.3973
▁통일부	-10.3974
▁나노	-10.398
▁말까지	-10.398
▁다섯	-10.3983
▁제국	-10.3986
▁포함된	-10.3986
▁이슈	-10.3987
▁대법원	-10.3989
▁충격	-10.3991
▁행사에	-10.3991
여명	-10.3992
▁고등학교	-10.3993
▁있을지	-10.3993
램	-10.3994
엔터테인먼트	-10.3996
▁&	-10.3998
▁경제적	-10.3999
▁확인됐다	-10.3999
▁세력	-10.4003
▁친박계	-10.4004
▁이용자가	-10.4005
▁증시	-10.4005
▁선전	-10.4006
▁있었는데	-10.4007
▁유닛	-10.401
식품	-10.401
▁운전자	-10.4012
▁창조	-10.4012
되기도	-10.4012
▁쪽으로	-10.4014
▁판정을	-10.4015
자료	-10.4016
▁국민이	-10.4016
52	-10.4018
▁영업이익	-10.4021
▁국정화	-10.4021
▁시작한다	-10.4023
▁600	-10.4024
▁집에	-10.4028
▁탓에	-10.4032
▁자격	-10.4033
▁75	-10.4036
▁고객의	-10.4038
▁해상	-10.404
▁민생	-10.4042
▁지원할	-10.4049
▁원작	-10.4056
▁가능성	-10.4057
영상	-10.406
▁의무	-10.406
▁터치	-10.4061
이라면서	-10.4061
▁조사됐다	-10.4063
▁들어갔다	-10.4063
▁상당의	-10.4064
ad	-10.4066
▁앤	-10.4069
▁입학	-10.4073
갔다	-10.4075
사랑	-10.4077
동아	-10.4077
▁않을까	-10.4078
▁대책을	-10.408
▁바다	-10.408
▁촉진	-10.4084
▁가상	-10.4086
사업을	-10.4086
묘	-10.4086
차량	-10.4088
▁지시	-10.4089
▁대해선	-10.4089
▁위하여	-10.409
▁노동자	-10.4091
▁달한다	-10.4092
IC	-10.4093
▁깊이	-10.4093
데요	-10.4093
▁복원	-10.4093
몽	-10.4096
▁진행한	-10.4096
▁주기	-10.4098
인터넷	-10.4098
▁역할	-10.4098
▁밑	-10.4099
▁봐야	-10.4103
on	-10.4103
▁없기	-10.4104
1000	-10.4105
▁내리	-10.4105
▁유도	-10.4106
43	-10.4108
▁배송	-10.4113
▁김태	-10.4114
▁내놓은	-10.4114
▁붙	-10.4115
▁수준이다	-10.4117
▁생긴	-10.4118
감이	-10.4122
▁옆	-10.4124
▁삶의	-10.4128
▁경매	-10.4128
▁상생	-10.4129
j	-10.413
▁리퍼트	-10.4131
마리	-10.4133
예술	-10.4137
▁쿠폰	-10.414
▁LED	-10.4141
▁기대하고	-10.4143
▁절차	-10.4145
▁비타민	-10.4147
▁여기	-10.4159
▁대상이	-10.4159
▁미래부	-10.416
▁노무현	-10.4168
컴	-10.4168
치료	-10.4169
▁영향력	-10.4172
▁냉	-10.4175
리에	-10.4176
▁별도로	-10.4177
▁정치권	-10.418
▁관계자들이	-10.4181
▁기술과	-10.4182
▁언	-10.4182
▁캐릭터를	-10.4183
현재	-10.4187
고요	-10.4189
직을	-10.4189
▁끌	-10.419
여행	-10.419
▁유입	-10.4192
▁발생했다	-10.4193
▁어디	-10.4193
▁예정이라고	-10.4197
▁제품으로	-10.4198
▁취급	-10.4199
납	-10.4202
▁안전한	-10.4203
했다며	-10.4204
▁구글플레이	-10.4207
▁그간	-10.4208
▁이명박	-10.421
▁42	-10.4214
▁나서고	-10.4214
▁들어간	-10.4218
ha	-10.4218
▁세부	-10.4218
▁장치	-10.422
▁의원들이	-10.422
으	-10.4222
▁배포	-10.4225
▁공무원연금	-10.4226
▁단일	-10.4229
▁경쟁이	-10.4232
▁희생	-10.4232
▁다이	-10.4234
▁비전	-10.4235
▁무인	-10.4236
▁이웃	-10.4239
▁것인가	-10.4239
네요	-10.4239
▁인사말을	-10.4242
시스	-10.4243
▁SBS	-10.4243
▁유행	-10.425
파크	-10.4252
▁제어	-10.4254
대전	-10.4255
▁혁신을	-10.4256
58	-10.4257
로서의	-10.4259
▁밥알	-10.4262
▁영향	-10.4263
삼성	-10.4265
▁확대해	-10.427
▁면세점	-10.427
▁800	-10.427
됐다고	-10.4271
88	-10.4272
▁총리가	-10.4272
▁알뜰폰	-10.4273
▁묵	-10.4273
▁싱가포르	-10.4273
▁방송을	-10.4276
물질	-10.4279
▁방법이	-10.4279
▁현상	-10.4279
▁부모	-10.428
▁맛	-10.4281
▁법정	-10.4281
▁교수가	-10.4281
57	-10.4283
▁설득	-10.4286
체험	-10.4287
▁다르게	-10.4293
▁행성	-10.4294
▁한국에서	-10.4295
앙	-10.4297
개선	-10.4298
▁입을	-10.43
▁에이	-10.43
▁보낸	-10.4303
▁세계에서	-10.4304
▁건너	-10.4311
▁용인	-10.4312
▁일반적인	-10.4312
▁시작해	-10.4314
▁힘이	-10.4319
▁Z	-10.4322
▁빠져	-10.4322
가족	-10.4323
▁증거	-10.4326
42	-10.4327
▁지휘	-10.4329
▁시대를	-10.433
됐지만	-10.4333
▁소니	-10.4338
려면	-10.4341
▁주의	-10.4344
▁심리	-10.4344
율을	-10.4346
률이	-10.4347
▁내렸다	-10.4349
SK	-10.435
▁본회의	-10.435
▁업종	-10.4357
54	-10.4358
칼	-10.4358
행정	-10.436
▁단위	-10.4362
단을	-10.4362
▁후반	-10.4365
▁유일하게	-10.4366
클럽	-10.4371
▁매주	-10.4376
중앙	-10.438
▁클	-10.4381
▁시대에	-10.4382
▁자유롭게	-10.4382
캐	-10.4389
▁촉구했다	-10.439
▁삼성물산	-10.4391
▁의지	-10.4394
상황	-10.4394
95	-10.4397
▁대립	-10.4398
▁맵	-10.44
▁곧바로	-10.4401
순위	-10.4403
▁사내	-10.4406
▁틀	-10.4411
▁답변	-10.4412
▁한강	-10.4414
▁섭취	-10.4417
▁장애	-10.4418
학생	-10.442
▁기가	-10.4423
론을	-10.4424
▁리스트	-10.4424
▁업계에	-10.4424
▁전략적	-10.4426
▁서울신문	-10.4426
▁드래곤	-10.4427
▁개발하고	-10.4428
▁UHD	-10.4429
▁하더라도	-10.4431
▁2001	-10.4431
▁공중	-10.4432
▁제시했다	-10.4432
▁서비스는	-10.4434
십	-10.4437
go	-10.4437
▁은퇴	-10.4438
느냐	-10.4441
▁와이파이	-10.4441
▁받기	-10.4445
▁보조	-10.4445
▁강도	-10.4448
▁관찰	-10.4454
되자	-10.4459
▁성적	-10.4467
억원에	-10.4483
▁시기에	-10.4485
▁39	-10.4493
▁사태	-10.4494
의료	-10.4494
▁최저	-10.4495
▁명절	-10.4495
▁나오지	-10.4498
▁폰	-10.45
▁묘사	-10.4502
▁의식	-10.4503
▁제품의	-10.4505
▁불이	-10.4508
▁솔	-10.4509
▁있음을	-10.4511
륜	-10.4512
▁일정을	-10.4512
▁둘째	-10.4515
▁성남	-10.4516
짓	-10.4518
▁되면서	-10.452
식이	-10.4523
▁강연	-10.4524
▁지원금	-10.4527
▁목소리가	-10.4528
신문	-10.4529
▁동반	-10.4529
▁크기	-10.453
▁한국과	-10.453
▁회사의	-10.453
▁역량	-10.4531
▁취재진	-10.4532
레벨	-10.4532
▁상하이	-10.4533
▁캡처	-10.4534
▁증명	-10.4534
▁때문입니다	-10.454
▁여권	-10.4544
▁증정한다	-10.4546
▁기술은	-10.4549
▁95	-10.4551
▁명예	-10.4551
▁자회사	-10.4557
▁착	-10.4558
▁경기에서	-10.4559
▁정지	-10.4559
전기	-10.4559
▁불가능	-10.4565
▁좋아하는	-10.4566
이었습니다	-10.4566
▁주주	-10.4567
▁정의화	-10.4567
원이다	-10.4569
▁처음이다	-10.4569
▁아무리	-10.4572
86	-10.4572
▁회담	-10.4579
▁입증	-10.4581
53	-10.4582
▁항의	-10.4583
소를	-10.4583
▁게임에	-10.4586
세트	-10.4587
초등학교	-10.4591
▁역사를	-10.4594
▁신형	-10.4595
으로써	-10.4599
▁숨	-10.4601
사단	-10.4604
▁사랑을	-10.4604
▁결의	-10.4605
▁야당이	-10.4605
▁바이	-10.4605
뇌	-10.4612
담당	-10.4613
였고	-10.4616
▁미치는	-10.4617
▁작품을	-10.4617
▁주목을	-10.4617
▁배경	-10.4618
▁꽤	-10.4622
▁멀티	-10.4624
욕	-10.4626
▁공약	-10.463
나가	-10.4633
▁칸	-10.4634
시대	-10.4635
▁구간	-10.4636
▁치열한	-10.4636
▁논의를	-10.4637
▁구조를	-10.4648
▁화웨이	-10.4649
▁기여	-10.4652
아파트	-10.4656
만한	-10.466
▁창립	-10.466
▁차지	-10.4661
▁듀얼	-10.4666
▁사실은	-10.4667
▁이어지고	-10.4669
데이터	-10.4672
▁부실	-10.4672
컵	-10.4673
▁의료진	-10.4673
▁면접	-10.4673
▁집계됐다	-10.4675
▁결과에	-10.4675
+	-10.4676
▁정작	-10.4677
▁행사에서	-10.4677
▁규모는	-10.4681
▁강화를	-10.4681
68	-10.4681
▁배제	-10.4683
▁반대로	-10.4683
▁명령	-10.4685
▁학부모	-10.4686
▁두번째	-10.4687
▁독특한	-10.469
▁부부	-10.4697
▁증상	-10.4699
▁자본	-10.4702
▁현상이	-10.4703
▁내지	-10.4705
▁강화하고	-10.4706
▁전망된다	-10.4707
▁냉장고	-10.4708
프리	-10.4709
▁하나인	-10.471
▁단어	-10.4712
▁않아도	-10.4713
▁이익	-10.4718
▁선정된	-10.4719
▁진출을	-10.4722
▁전원	-10.4724
▁생각합니다	-10.4728
▁동참	-10.4729
주고	-10.4729
▁사진제공	-10.4731
어야	-10.4731
▁북부	-10.4738
▁뜨거운	-10.4738
▁수준을	-10.4742
▁종이	-10.4743
▁아무런	-10.4743
▁성공했다	-10.4752
▁가득	-10.4752
▁심지어	-10.4757
▁경기를	-10.4758
▁하드웨어	-10.4759
▁집권	-10.4761
윈	-10.4761
▁높게	-10.4761
▁일어나	-10.4762
부가	-10.4764
▁46	-10.4764
▁모델로	-10.4765
▁황제	-10.4765
웠다	-10.4767
▁기자들과	-10.4768
억달러	-10.4771
▁센서	-10.4777
전자가	-10.4779
딜	-10.4779
▁회의에서	-10.4782
▁개막	-10.4783
겠지만	-10.4783
▁사무총장	-10.4784
▁참가자	-10.4784
▁창조경제	-10.4785
▁시사	-10.4786
▁인공	-10.4786
▁카드를	-10.4789
▁비서실장	-10.4791
▁애플의	-10.4792
▁없었던	-10.4792
▁드러났다	-10.4793
년을	-10.4794
▁그렇지	-10.4796
▁태풍	-10.48
▁성격	-10.48
▁방향을	-10.4801
▁보도합니다	-10.4802
▁도중	-10.4805
▁잘못된	-10.4807
▁진실	-10.481
▁영양	-10.481
▁`	-10.4814
▁목적	-10.4815
▁매달	-10.4817
▁거대한	-10.4818
▁김용	-10.4819
레이	-10.482
▁연말	-10.4821
▁예정입니다	-10.4827
▁사이의	-10.4829
군을	-10.4831
▁기대한다	-10.4832
▁국내에	-10.4835
se	-10.4835
▁판매한다	-10.4836
보안	-10.4838
원에서	-10.484
▁국방	-10.4841
▁마이크로소프트	-10.4843
▁금액	-10.4845
▁여야가	-10.4847
▁디자이너	-10.4849
▁말이다	-10.485
▁않습니다	-10.4852
▁이메일	-10.4856
▁그게	-10.4857
하이	-10.4859
▁의사를	-10.4859
▁윈도	-10.4862
03	-10.4864
▁한때	-10.4867
▁집에서	-10.4875
▁자율주행	-10.4876
체제	-10.4878
▁않지만	-10.4878
유통	-10.4879
▁맞은	-10.4881
▁기준을	-10.4884
▁시내	-10.4885
▁그녀의	-10.4893
▁지연	-10.4896
▁매출을	-10.4897
▁현재의	-10.4898
▁찾을	-10.4899
▁열차	-10.49
▁진술	-10.4901
▁생각해	-10.4904
lt	-10.4909
▁편의점	-10.4909
▁현안	-10.491
만원의	-10.491
본부장	-10.4913
▁스페셜	-10.4917
▁지진	-10.4918
ICT	-10.4921
▁갈수록	-10.4922
▁한국어	-10.4922
▁만날	-10.4924
방식	-10.4925
id	-10.4927
▁선도	-10.4931
▁조각	-10.4931
▁지켜	-10.4932
치고	-10.4932
▁초점을	-10.4934
경찰서	-10.4935
시리즈	-10.4935
▁청와대에서	-10.4936
▁씨의	-10.4948
▁와서	-10.4949
▁공간을	-10.4952
▁저항	-10.4952
다운	-10.4958
▁편이다	-10.4958
▁청문회	-10.4961
장애	-10.4965
값	-10.4965
▁테마	-10.4966
▁채권	-10.4967
▁새누리당이	-10.4968
▁견	-10.497
▁혜택	-10.497
▁정규	-10.4971
▁이산가족	-10.4973
▁법무부	-10.4975
▁맡아	-10.4977
▁모델이	-10.4977
▁59	-10.4977
▁김종	-10.4982
▁시간에	-10.4982
부산	-10.4984
▁특유의	-10.4985
▁맞서	-10.499
▁표기	-10.4992
니스	-10.4993
]	-10.4999
▁갖췄다	-10.4999
▁출근	-10.5001
(...)	-10.5003
▁:	-10.5006
▁의문	-10.5011
▁일종의	-10.5013
▁발견된	-10.5015
▁이승	-10.5016
로봇	-10.5017
84	-10.5017
▁있었습니다	-10.5018
▁정확히	-10.5019
▁양자	-10.502
▁즉각	-10.5021
는데요	-10.5022
▁토지	-10.5026
▁뛰어	-10.5032
음악	-10.5035
▁시계	-10.5035
▁독점	-10.5036
시키기	-10.5038
가격	-10.5039
▁주인	-10.504
▁개척	-10.5041
렉	-10.5042
▁여론	-10.5043
▁서민	-10.5046
▁생활을	-10.5047
▁본인이	-10.5048
▁동구	-10.5048
><	-10.5053
▁아기	-10.5053
▁본래	-10.5054
8000	-10.5054
▁노조	-10.506
▁포인트를	-10.5061
▁시나리오	-10.5063
물이	-10.5068
ie	-10.5068
▁분석해	-10.507
▁이어지는	-10.5071
▁증상이	-10.5071
▁기록을	-10.5073
66	-10.5076
▁줄었다	-10.5077
85	-10.5079
▁불편	-10.5079
▁감지	-10.508
▁이기	-10.508
까지는	-10.5081
▁발표하고	-10.5082
감독	-10.5082
▁위원	-10.5083
63	-10.5084
서비스를	-10.5086
▁개성	-10.5091
▁구체적으로	-10.5093
ing	-10.5094
▁43	-10.51
▁제도를	-10.5102
▁블	-10.5104
▁사용하고	-10.5106
▁700	-10.5107
▁그렇다면	-10.5108
▁지낸	-10.5108
▁지상파	-10.511
▁달려	-10.5112
호텔에서	-10.5116
갤럭시	-10.5117
▁포럼	-10.5118
▁호소	-10.5119
▁입장에서	-10.512
칙	-10.5122
-1	-10.5124
▁모두가	-10.5125
개로	-10.5126
▁김영삼	-10.5129
▁높일	-10.5129
▁탑	-10.5132
▁필리핀	-10.5132
▁에피소드	-10.5134
▁집을	-10.5135
▁단백질	-10.5138
▁제공된다	-10.514
▁홍준표	-10.514
칩	-10.514
▁상징	-10.5141
▁세상을	-10.5142
▁남편	-10.5142
▁84	-10.5143
▁식물	-10.5144
▁방영	-10.5145
기사	-10.515
▁디자인을	-10.5153
▁무장	-10.5155
대응	-10.5158
▁입원	-10.5159
▁스트레스	-10.516
▁일본군	-10.516
▁승부	-10.5162
점에서	-10.5163
대출	-10.5163
▁그것	-10.5165
▁케이	-10.5167
▁계좌	-10.5167
▁김정	-10.5169
▁풀이된다	-10.517
졌습니다	-10.5171
▁소유	-10.5172
▁고향	-10.518
▁IS	-10.5182
찌	-10.5183
▁회동	-10.5187
망을	-10.5189
▁일주일	-10.5189
▁야당의	-10.5191
▁연구원은	-10.5194
▁훼손	-10.5196
MA	-10.5196
▁지출	-10.5197
하자는	-10.5197
▁각자	-10.5198
타운	-10.5199
연맹	-10.5203
▁이내	-10.5207
▁생명	-10.5208
▁벤처	-10.5213
▁묘	-10.5216
▁읽	-10.5216
▁분노	-10.5216
▁결코	-10.5216
▁강의	-10.5217
▁불리	-10.522
▁막을	-10.5222
▁거론	-10.5223
▁때부터	-10.5225
▁고객을	-10.5227
▁비가	-10.5233
▁후보를	-10.5233
▁민원	-10.5234
으니	-10.5237
▁b	-10.5242
▁분석한	-10.5244
내는	-10.5244
▁쥐	-10.5247
▁노동개혁	-10.5247
러스	-10.5247
호가	-10.5248
▁층	-10.5254
흐	-10.5255
▁사장이	-10.5255
▁제품이다	-10.5258
▁미만	-10.5261
계의	-10.5261
▁얼굴을	-10.5263
▁국산	-10.5264
▁진정한	-10.5267
▁제품에	-10.5268
잉	-10.527
▁매출액	-10.5271
용품	-10.5275
▁사업은	-10.528
▁화려한	-10.5282
금리	-10.5285
굴	-10.5285
▁단순한	-10.5288
▁바둑	-10.5288
여명의	-10.5294
▁생각하고	-10.5297
▁메신저	-10.5298
▁방해	-10.5299
▁다리	-10.5301
▁참가한	-10.5304
▁건강한	-10.5307
▁이유를	-10.5307
▁긍정적인	-10.5308
▁할머니	-10.5309
▁현장을	-10.531
▁부서	-10.5311
▁적절한	-10.5312
▁헬	-10.5317
놓고	-10.5318
▁경제부총리	-10.532
▁동일	-10.5322
▁지급하는	-10.5322
▁능력이	-10.5323
▁말한	-10.5326
▁최저임금	-10.5329
▁개최했다	-10.5331
▁됐다고	-10.5331
▁성공적으로	-10.5333
▁심의	-10.5334
덴	-10.5337
▁좌우	-10.5338
▁선보이는	-10.5338
▁추락	-10.5341
▁이끌	-10.5341
▁모두발언을	-10.5341
ri	-10.5342
▁가게	-10.5342
▁44	-10.5343
▁유료	-10.5345
▁근육	-10.5346
았습니다	-10.5349
▁오디오	-10.5349
▁통상	-10.5353
활	-10.5355
▁보인	-10.5357
▁식사	-10.5358
▁세워	-10.5358
조치	-10.5359
▁본격화	-10.5359
▁매입	-10.5363
▁길드	-10.5364
▁선출	-10.5364
▁대표하는	-10.5365
▁계파	-10.5369
▁고속도로	-10.5369
▁바란다고	-10.5371
자들은	-10.5373
▁사무실	-10.5374
만원으로	-10.5375
▁한글	-10.5376
▁집안	-10.5377
▁전해	-10.5378
▁데이	-10.538
▁용어	-10.538
▁건조	-10.5381
▁360	-10.5381
선수	-10.5387
▁등장한	-10.5389
▁용산	-10.539
전화	-10.5392
▁온도	-10.5395
▁척	-10.5396
▁지원하고	-10.5396
▁유사	-10.5398
▁자율	-10.5401
▁전담	-10.5401
비는	-10.5401
논	-10.5401
▁진행되고	-10.5401
국내	-10.5401
▁여부	-10.5402
▁내다봤다	-10.5408
▁마음이	-10.5411
▁특화	-10.5414
▁예산을	-10.5414
▁재직	-10.5415
▁후속	-10.5415
룩	-10.5415
정을	-10.5416
▁실시한다	-10.542
▁책을	-10.5422
사에	-10.5422
▁마스터	-10.5423
▁인양	-10.5423
부는	-10.5425
스마트	-10.5425
▁갈등	-10.5426
▁요구했다	-10.5427
▁수준이	-10.5428
▁진행되며	-10.5428
▁피의자	-10.5428
▁세계적으로	-10.5431
▁서부	-10.5434
▁형제	-10.5435
세의	-10.5436
▁담고	-10.5437
스키	-10.5437
▁합쳐	-10.5439
정당	-10.544
▁녹취	-10.544
▁숨진	-10.544
▁제공해	-10.5441
▁됐습니다	-10.5444
▁제작한	-10.5445
▁1980	-10.5445
▁제시한	-10.5445
▁대하여	-10.5446
▁모니터	-10.5446
텔	-10.5448
▁주제	-10.5449
▁초과	-10.5451
▁자연스럽게	-10.5452
미터	-10.5455
▁손쉽게	-10.5455
라면서	-10.5457
▁상향	-10.5461
</	-10.5462
▁노동당	-10.5462
▁환자는	-10.5466
▁산업통상자원부	-10.5466
자들의	-10.5467
▁실시한	-10.5471
▁출력	-10.5471
▁허가	-10.5472
▁늘어날	-10.5472
▁계속해서	-10.5475
▁히트	-10.5476
▁찍	-10.5476
▁승리를	-10.5478
판을	-10.5478
▁소식	-10.5478
▁콩	-10.5487
▁공원	-10.5487
▁한겨레	-10.549
▁관람	-10.5491
▁스테이지	-10.5491
▁과일	-10.5493
글로벌	-10.5495
▁수학	-10.5497
수준	-10.5498
▁AP	-10.5499
▁충분한	-10.55
▁모으고	-10.55
▁펴	-10.5501
▁관계가	-10.5504
교회	-10.5504
▁분당	-10.5505
기의	-10.5506
▁뮤지컬	-10.5506
▁소모	-10.5508
▁대체로	-10.5513
▁2019	-10.5513
▁펼쳐	-10.5515
▁노후	-10.5518
▁판매를	-10.5518
▁프로모션	-10.5521
▁화면을	-10.5527
▁전화를	-10.553
HD	-10.5533
단의	-10.5533
인당	-10.5535
98	-10.5536
▁통보	-10.5536
비트	-10.5537
51	-10.554
▁일환으로	-10.554
▁이번에는	-10.5543
▁250	-10.5544
▁싸	-10.5546
금지	-10.5553
▁전망이	-10.5554
▁살해	-10.5554
▁박지원	-10.5554
▁가격을	-10.5555
▁이름은	-10.5555
▁의장은	-10.5558
▁빙	-10.5562
▁품목	-10.5562
▁가고	-10.5563
▁춘천	-10.5564
씨와	-10.5566
4000	-10.5568
체를	-10.557
▁시술	-10.5571
▁기업인	-10.5571
▁오늘날	-10.5574
▁선진국	-10.5574
핵	-10.5575
▁입찰	-10.5576
▁소위	-10.5577
▁보이	-10.5577
▁페이지	-10.5578
었는데	-10.5579
▁국무총리가	-10.5579
▁국회의장	-10.558
▁다수의	-10.558
▁연말정산	-10.5581
▁런던	-10.5584
▁모양	-10.5585
결제	-10.5587
ra	-10.5588
▁아직도	-10.5591
▁명을	-10.5598
▁화이트	-10.56
▁곳으로	-10.5603
▁주장을	-10.5603
▁퀘스트	-10.5604
▁몇몇	-10.561
▁가격에	-10.5611
▁수치	-10.5612
▁이종	-10.5617
▁주변에	-10.5621
▁되었고	-10.5622
ic	-10.5628
천여	-10.5628
시킨다	-10.563
▁바람에	-10.563
▁목표를	-10.5631
▁소개하고	-10.5635
▁열리고	-10.5636
41	-10.5637
▁먼	-10.5639
▁떨	-10.564
▁지명	-10.5641
▁분들이	-10.565
▁캠프	-10.5652
대구	-10.5652
픽	-10.5659
6000	-10.566
▁신호	-10.5662
▁거기에	-10.5663
▁무조건	-10.5664
▁의도	-10.5664
주간	-10.5671
▁발표된	-10.5673
▁손에	-10.5677
▁연내	-10.5677
01	-10.5678
▁필요하다는	-10.5678
▁더해	-10.5679
받았다	-10.568
▁환자의	-10.568
끼	-10.5681
자에게	-10.5681
▁한해	-10.5681
릉	-10.5682
▁포착	-10.5684
▁이통사	-10.5685
▁현장에	-10.5687
주를	-10.5689
접	-10.5691
▁고발	-10.5696
▁식당	-10.5696
▁능	-10.5699
▁수업	-10.5699
사이트	-10.57
▁독도	-10.57
▁전사	-10.57
▁높아지고	-10.57
▁일이다	-10.5701
▁힘입어	-10.5701
▁시행령	-10.5701
▁죽은	-10.5702
▁요인	-10.5705
▁음반	-10.5711
▁FTA	-10.5715
▁속도가	-10.5716
▁평창	-10.5719
중심	-10.5722
교수	-10.5723
▁착수	-10.5724
▁돈이	-10.573
▁팩	-10.5732
▁선택할	-10.5736
▁연구팀은	-10.5736
▁증권	-10.5737
▁하던	-10.5737
▁참여했다	-10.5737
▁달라고	-10.5738
AR	-10.5743
76	-10.5744
▁뽑	-10.5746
▁말에	-10.5748
▁남녀	-10.5749
▁최고위원회의에서	-10.575
▁유사한	-10.5752
▁탑재한	-10.5755
창업	-10.5757
▁많고	-10.576
▁만든다	-10.576
▁점령	-10.5761
▁내장	-10.5761
까요	-10.5762
▁와인	-10.5765
▁재료	-10.5765
▁검찰이	-10.5765
▁않았지만	-10.5771
트라	-10.5772
▁협약을	-10.5773
▁음원	-10.5773
▁칠	-10.5773
▁천정배	-10.5778
▁정상화	-10.578
세력	-10.5787
▁알려	-10.5787
▁상상	-10.5789
▁끝내	-10.5791
▁빗	-10.5791
▁광역	-10.5796
▁최고경영자	-10.5799
▁신용카드	-10.5802
받는	-10.5803
▁사면	-10.5805
▁밀려	-10.5808
동에	-10.5809
▁비정규직	-10.5813
▁터키	-10.5814
대교	-10.5816
▁자전거	-10.5816
▁그걸	-10.5817
▁체결했다	-10.5819
시즌	-10.5823
털	-10.5823
했는지	-10.5824
96	-10.5826
▁미술	-10.5826
렁	-10.5826
▁뭔가	-10.5826
세포	-10.5828
▁단축	-10.5828
콘텐츠	-10.5829
심사	-10.583
0.	-10.5834
▁준비를	-10.5836
▁직장인	-10.5836
▁소리를	-10.5836
▁알려졌습니다	-10.5839
▁수수료	-10.584
▁경쟁을	-10.5844
▁중동호흡기증후군메르스	-10.5845
▁있다면서	-10.5846
딘	-10.5847
케이	-10.5852
▁실적을	-10.5853
▁전까지	-10.5854
▁사용한다	-10.5854
▁워싱턴	-10.5854
▁게임이	-10.5855
▁페스티벌	-10.5855
▁말로	-10.5855
▁기소	-10.5857
▁무대	-10.5858
▁차원의	-10.586
▁아는	-10.5861
소리	-10.5861
▁물건	-10.5861
▁사람들을	-10.5863
▁꼽힌다	-10.5864
▁수면	-10.5866
▁부르	-10.5867
▁지도부	-10.5868
▁대상자	-10.5872
▁이뤄진	-10.5875
▁김영석	-10.5875
▁미칠	-10.5876
▁정체	-10.5877
▁않았	-10.5877
▁물류	-10.5883
▁무제한	-10.5883
▁전투기	-10.5884
따	-10.5884
닌	-10.5887
▁살려	-10.5891
▁iOS	-10.5894
▁늘려	-10.5898
▁완공	-10.5898
▁몰려	-10.59
▁대륙	-10.59
통합	-10.5901
▁생생한	-10.5902
▁85	-10.5903
▁스튜디오	-10.5904
결과	-10.5904
▁하겠다	-10.5904
롬	-10.5904
▁군인	-10.5905
▁추진할	-10.5908
▁눈이	-10.5913
▁소녀	-10.5913
▁동력	-10.5913
▁사전에	-10.5916
▁하나는	-10.5916
RD	-10.5917
▁기자회견	-10.5917
▁마켓	-10.5921
자산	-10.5921
보는	-10.5922
▁말해	-10.5925
젤	-10.5925
▁주장이	-10.5925
▁않는다는	-10.5928
op	-10.5928
▁얼음	-10.5929
▁배틀	-10.5931
▁경험이	-10.5932
▁2030	-10.5934
하라는	-10.5934
첩	-10.5937
▁상태를	-10.5937
▁퀄컴	-10.5937
보기	-10.5943
▁최소화	-10.5946
▁중계	-10.5946
▁회사가	-10.5948
▁물리	-10.5951
홈	-10.5952
▁마련됐다	-10.5956
었지만	-10.596
둘	-10.596
여서	-10.5961
▁외모	-10.5962
▁유기	-10.5962
▁장비를	-10.5963
짐	-10.5963
이던	-10.5969
▁쌍	-10.597
함과	-10.5971
▁협조	-10.5974
잖아요	-10.5975
▁웃	-10.598
▁이마트	-10.598
▁줄어들	-10.5981
건으로	-10.5982
▁징	-10.5982
▁권리	-10.5982
▁상무는	-10.5983
▁말씀을	-10.5988
▁해안	-10.5991
▁지역은	-10.5994
▁앙	-10.5995
▁피해가	-10.5999
▁높이기	-10.6001
▁기반을	-10.6001
▁실질적인	-10.6001
규모	-10.6001
전이	-10.6004
▁녹색	-10.6004
67	-10.6007
들로부터	-10.601
호는	-10.6012
▁56	-10.6012
▁이사회	-10.6014
▁서명	-10.6018
후보	-10.6019
▁펜	-10.6019
▁내수	-10.602
▁1999	-10.6021
라이	-10.6021
답	-10.6024
다리	-10.6025
시는	-10.6025
▁의원들의	-10.6026
▁모른다	-10.6026
▁음식을	-10.6026
▁추정된다	-10.6027
법이	-10.6027
▁친박	-10.6029
▁강력	-10.6033
▁거대	-10.6035
▁중학교	-10.6035
▁영향으로	-10.6035
휴	-10.6037
▁그럴	-10.6038
▁사정	-10.604
▁협	-10.6042
▁탈출	-10.6043
▁전직	-10.6043
▁아빠	-10.6045
SW	-10.6046
노동	-10.6048
▁개발해	-10.605
▁예고	-10.6051
▁오랫동안	-10.6052
작전	-10.6053
▁확대할	-10.6053
▁논리	-10.6061
▁신용	-10.6061
▁제약	-10.6063
▁단속	-10.6063
▁감소했다	-10.6064
▁자율주행차	-10.6064
건의	-10.6064
▁합격	-10.6065
조건	-10.6065
▁수익률	-10.6066
▁의하면	-10.6067
▁없게	-10.6068
▁모듈	-10.6069
▁데다	-10.6069
▁전작	-10.607
성장	-10.6071
▁재미	-10.6072
▁대법관	-10.6074
▁했으나	-10.6076
▁존재한다	-10.6077
▁지점	-10.6078
▁롤	-10.6079
▁유해	-10.608
▁프로젝트를	-10.6083
호기	-10.6088
▁그나마	-10.6088
▁52	-10.6089
생명	-10.6089
폴	-10.609
▁기자회견에서	-10.6091
▁군대	-10.6092
▁정부세종청사	-10.6093
▁엔터테인먼트	-10.6094
사업자	-10.6096
▁철학	-10.6097
▁압	-10.6098
▁분산	-10.6102
▁청소	-10.6102
교류	-10.6102
▁활	-10.6102
▁패턴	-10.6103
▁효율성	-10.6106
▁것이라	-10.6108
▁동아닷컴	-10.6109
▁검은	-10.611
▁명품	-10.6111
▁학원	-10.6114
메르스	-10.6118
델	-10.6119
▁47	-10.612
▁고통	-10.612
차를	-10.6122
▁현황	-10.6123
전문가	-10.6124
▁포켓몬	-10.6125
이었고	-10.6125
▁생물	-10.6126
석을	-10.6126
89	-10.6127
▁전세	-10.6128
▁레이저	-10.6132
▁맡았다	-10.6133
사람	-10.6133
▁보건	-10.6133
눈	-10.6135
부를	-10.6136
▁준비하고	-10.6136
▁끝까지	-10.6143
▁비서	-10.6145
▁그럼에도	-10.6147
▁하겠다고	-10.6149
▁기대를	-10.6152
트를	-10.6154
▁가야	-10.6156
▁걸려	-10.6157
우는	-10.6158
개월간	-10.616
박람회	-10.616
▁이야기가	-10.6163
▁심판	-10.6164
▁들어가는	-10.6165
분을	-10.6165
▁특성	-10.617
▁체력	-10.6172
심을	-10.6172
▁1998	-10.6174
▁기업과	-10.6178
▁계열	-10.6185
▁뼈	-10.6186
▁주류	-10.6188
겐	-10.6188
업무	-10.619
▁네덜란드	-10.619
▁꿈을	-10.6191
▁총선을	-10.6193
▁보존	-10.6194
▁대통령을	-10.6195
▁납부	-10.6195
간다	-10.6197
▁동영상을	-10.6197
69	-10.62
▁설명을	-10.62
ur	-10.6201
▁판매하는	-10.6204
센터를	-10.6206
▁...	-10.6209
▁철저히	-10.6209
▁론칭	-10.6211
▁우버	-10.6212
▁유지하고	-10.6212
▁상봉	-10.6213
▁점포	-10.6214
▁서비스에	-10.6214
▁몰아	-10.6215
▁제조업	-10.6216
년째	-10.6216
▁포기	-10.6219
▁타임	-10.6221
▁기업은	-10.6222
는지	-10.6223
▁간단한	-10.6225
▁앉아	-10.6225
분이	-10.6226
▁잠수함	-10.6228
▁사용되는	-10.623
▁기독교	-10.623
▁이른다	-10.6232
▁표면	-10.6232
공항	-10.6233
▁곽	-10.6234
▁주지	-10.6241
▁국회에	-10.6241
▁스토어	-10.6242
7000	-10.6242
▁가면	-10.6243
▁증가하고	-10.6245
61	-10.6245
세이	-10.6247
▁그들은	-10.6248
▁허위	-10.6252
▁방법은	-10.6252
교통	-10.6253
▁총기	-10.6253
▁어떠한	-10.6255
▁소화	-10.6259
▁고전	-10.6259
▁밝히고	-10.626
▁닫	-10.6261
▁방역	-10.6262
▁쓰레기	-10.6263
▁주관	-10.6264
▁가능해	-10.6265
법에	-10.6266
▁넘	-10.6268
▁중반	-10.6269
▁하나가	-10.627
▁지도자	-10.6271
라이트	-10.6272
▁돌려	-10.6275
▁사업이	-10.6277
▁연극	-10.6279
▁HD	-10.628
표를	-10.6282
예산	-10.6292
럴	-10.6293
제는	-10.6294
틸	-10.6297
▁의미한다	-10.6297
▁핵실험	-10.6298
▁아니지만	-10.63
▁소년	-10.6305
▁밖으로	-10.6305
▁아르	-10.6307
년도	-10.6307
▁지표	-10.6307
▁소식이	-10.6308
▁획득할	-10.6313
▁신화	-10.6313
플레이	-10.6314
▁대다수	-10.6318
▁대변인	-10.6318
▁비행기	-10.632
▁매매	-10.632
밤	-10.6321
▁이어졌다	-10.6322
▁이성	-10.6323
,000	-10.6323
▁딱	-10.6323
계약	-10.6326
▁CC	-10.6326
쥐	-10.6328
▁아이들이	-10.633
북한	-10.6331
됨에	-10.6332
장관	-10.6332
▁논란을	-10.6332
▁확대를	-10.6334
▁자가	-10.6334
▁기존에	-10.6335
▁개시	-10.6337
▁시리즈의	-10.6339
▁웹사이트	-10.634
▁실력	-10.6342
동안	-10.6344
▁뒤로	-10.6346
박물관	-10.6346
▁참고	-10.6348
▁베이징	-10.6348
널	-10.6348
느	-10.6349
▁지불	-10.635
▁황금	-10.6351
▁입장에서는	-10.6353
▁삼성동	-10.6353
▁이끄는	-10.6355
▁웨어러블	-10.6355
▁목숨을	-10.6357
위원장이	-10.6358
▁거주	-10.6359
명이다	-10.6359
원장	-10.636
롤	-10.6361
▁개선을	-10.6364
▁고속	-10.6366
▁담아	-10.6367
▁취재	-10.637
83	-10.6371
▁추진하는	-10.6374
몸	-10.6379
▁부총리	-10.638
▁행동을	-10.638
▁쏟아	-10.6381
▁임기	-10.6383
▁국가의	-10.6385
▁여러분	-10.6386
▁태도	-10.6389
▁도착	-10.6392
▁네이버는	-10.6393
▁조만간	-10.6394
차관	-10.6394
▁코너	-10.6395
▁기능도	-10.6396
▁49	-10.6398
▁크고	-10.64
AP	-10.6401
▁입지	-10.6408
▁1.5	-10.6409
me	-10.641
▁코드	-10.641
▁해명	-10.641
▁수리	-10.6412
▁불과하다	-10.6413
▁발급	-10.6413
▁사례를	-10.6415
▁시인	-10.642
▁한국에	-10.642
CC	-10.6423
맵	-10.6423
▁느낌을	-10.6425
▁비율이	-10.6426
▁이란	-10.6426
▁환영	-10.6429
▁면에서	-10.643
피아	-10.643
학습	-10.6432
▁운동을	-10.6432
▁동해	-10.6433
▁일제	-10.6443
가스	-10.6445
공연	-10.6448
▁따뜻한	-10.6448
부분	-10.6451
▁입점	-10.6454
▁콘서트	-10.6456
였지만	-10.6456
▁이뤄질	-10.6456
▁의뢰	-10.6458
▁수백	-10.6459
도서관	-10.646
▁얻었다	-10.6463
▁멕시코	-10.6465
▁마련해	-10.6467
이상	-10.6467
▁승진	-10.6474
디자인	-10.6479
▁떨어지는	-10.6479
경쟁	-10.6482
졸	-10.6482
▁오토	-10.6483
▁나타나는	-10.6484
▁출산	-10.6484
번호	-10.6485
TS	-10.6488
▁있었다고	-10.6488
▁매력	-10.6489
▁안산	-10.6494
률은	-10.6494
ir	-10.6495
대비	-10.6495
▁항목	-10.6495
▁벤	-10.6495
▁저지	-10.6496
▁마이크로	-10.6498
▁기업에	-10.6503
▁정밀	-10.6503
▁범행	-10.6504
짜	-10.6508
▁돕는	-10.6508
▁1997	-10.651
▁일어난	-10.6512
▁서비스로	-10.6513
▁CES	-10.6516
▁트렌드	-10.6517
▁동양	-10.6519
▁성공한	-10.652
▁전체의	-10.6526
▁에스	-10.6528
▁이주	-10.6528
▁컴	-10.6529
▁합의를	-10.6529
▁바꾸	-10.653
▁확인하고	-10.6531
▁것이며	-10.6534
▁연재	-10.6535
▁언론사	-10.6538
▁어려울	-10.6539
닥	-10.6542
▁목소리	-10.6544
법은	-10.6547
▁윈	-10.6548
▁스위스	-10.6549
환자	-10.6549
gt	-10.6551
▁이후에	-10.6552
▁이건	-10.6554
▁위치해	-10.6554
▁취득	-10.6556
▁결과는	-10.6558
▁계승	-10.6559
인들이	-10.6564
▁결정했다	-10.6565
▁주간	-10.6568
정신	-10.657
학자	-10.6571
▁차량을	-10.6572
▁안심	-10.6572
▁국토교통부	-10.6574
▁이탈	-10.6577
▁맺고	-10.6578
▁앱스토어	-10.658
▁십	-10.6581
▁검거	-10.6583
기금	-10.6584
▁갖는	-10.6586
통일	-10.6587
▁않았고	-10.6588
▁김현	-10.6588
▁41	-10.6591
▁고객들이	-10.6591
랜	-10.6592
▁김동	-10.6593
▁컨퍼런스	-10.6594
▁윈도우	-10.6595
▁봤다	-10.6596
▁유세	-10.6597
▁적용할	-10.6604
▁소셜	-10.6604
▁되며	-10.6604
79	-10.6606
▁색상	-10.6607
▁4000	-10.6611
▁가치가	-10.6616
▁매월	-10.6618
▁가능성은	-10.6618
▁모임	-10.6618
▁의혹이	-10.6623
▁분쟁	-10.6623
▁봉사	-10.6625
▁phoo	-10.6627
▁흥	-10.6628
▁업체가	-10.663
▁거친	-10.663
▁시대의	-10.6631
▁사격	-10.6632
트로	-10.6634
▁가맹점	-10.6634
해준다	-10.6635
▁타이	-10.6636
▁논의가	-10.6638
▁2.0	-10.6638
내기	-10.6639
▁덮	-10.664
▁본인의	-10.6643
▁주목된다	-10.6646
▁협회	-10.6646
▁참여를	-10.6646
▁쟁점	-10.6651
▁반성	-10.6651
▁수주	-10.6652
프로그램	-10.6655
▁매장에서	-10.6655
▁확충	-10.6656
라운드	-10.6656
▁세운	-10.6658
▁방식이	-10.6659
어서	-10.6665
▁기업을	-10.6666
▁한국은	-10.6667
▁쏘	-10.6668
놀이	-10.6668
▁동작	-10.6668
▁값	-10.6671
▁FC	-10.6672
▁소방	-10.6673
▁조금씩	-10.6678
▁애플워치	-10.6679
▁농촌	-10.668
당한	-10.668
at	-10.6681
▁이뤄	-10.6682
▁남북관계	-10.6682
▁그랜드	-10.6684
▁이들을	-10.6684
▁멀리	-10.6684
▁효	-10.6691
ex	-10.6692
▁조사한	-10.6693
▁인류	-10.6695
▁설명하고	-10.6698
▁진행될	-10.6701
▁끌었다	-10.6703
▁워낙	-10.6705
융합	-10.6712
지금	-10.6715
▁한중	-10.6716
▁폴	-10.6717
▁입장이다	-10.672
▁천안	-10.6722
▁오바마	-10.6723
▁신세계	-10.6725
▁협력해	-10.6725
▁김기	-10.6728
▁중에서도	-10.6731
올해	-10.6734
▁비중은	-10.6735
▁간부	-10.6735
▁yskim	-10.6736
▁사람에게	-10.674
▁사건의	-10.6743
과정	-10.6745
▁출입	-10.6746
▁머리를	-10.6746
투자증권	-10.6747
▁강릉	-10.6748
▁타입	-10.675
▁발효	-10.6751
분쯤	-10.6752
▁180	-10.6753
조합	-10.6756
▁프로세서	-10.6757
선이	-10.6757
실장	-10.6758
▁특성을	-10.6759
지난	-10.6764
▁승객	-10.6767
사인	-10.6767
▁이밖에	-10.6767
핀	-10.6771
▁재판부는	-10.6773
▁모습이다	-10.6775
▁위치를	-10.6775
외교	-10.6778
▁정도가	-10.678
▁사유	-10.6781
▁복잡한	-10.6783
▁노하우를	-10.6783
▁이뤄졌다	-10.6786
▁아이돌	-10.6791
스티	-10.6792
▁힘들다	-10.6794
▁가려	-10.6794
▁나가는	-10.6795
▁수습	-10.6796
역사	-10.6797
▁키워	-10.6797
▁응용	-10.6799
04	-10.6803
▁고가	-10.6807
▁협력사	-10.6808
72	-10.6809
▁최적화	-10.681
▁파문	-10.6812
▁부탁	-10.6813
부의	-10.6814
▁가질	-10.6817
집니다	-10.6819
기록	-10.682
천억원	-10.6821
▁소비자들의	-10.6822
▁보지	-10.6823
▁손상	-10.6827
▁음악을	-10.6828
▁원인이	-10.6829
▁해체	-10.6832
▁이르면	-10.6832
구를	-10.6835
74	-10.6837
▁않았습니다	-10.6838
▁사람들에게	-10.6839
▁드레스	-10.684
▁탐지	-10.6842
▁위헌	-10.6845
▁적용된	-10.6845
▁민주주의	-10.6846
▁내외	-10.6846
국의	-10.6847
▁시스템이	-10.6847
공격	-10.6849
um	-10.6849
▁방식이다	-10.685
지게	-10.6857
▁MA	-10.6858
▁힘들	-10.6859
대와	-10.6863
▁스크린	-10.6863
▁이상으로	-10.6866
▁마르	-10.6868
▁익	-10.6868
▁적합한	-10.6868
▁알리는	-10.6869
▁1500	-10.6872
연합회	-10.6873
▁디바이스	-10.6874
상으로	-10.6875
ae	-10.6876
마케팅	-10.6876
▁주차장	-10.6878
▁한국을	-10.6878
천만원	-10.6879
▁긴장	-10.6879
▁배려	-10.688
룬	-10.6881
▁방식의	-10.6883
▁IPTV	-10.6883
▁과학기술정보통신부	-10.6885
▁놀이	-10.6885
▁블루투스	-10.6885
▁졸	-10.689
아시아	-10.689
▁장군	-10.6891
밭	-10.6892
▁주체	-10.6895
78	-10.6896
▁옆에	-10.6896
▁비공개	-10.6898
▁태양광	-10.69
▁창작	-10.6901
▁구상	-10.6902
▁전후	-10.6903
플랫폼	-10.6905
▁않다는	-10.6905
▁끈	-10.6906
머리	-10.6908
버린	-10.6912
만달러	-10.6913
62	-10.6915
▁코스피	-10.6918
▁건의	-10.692
▁행정자치부	-10.6921
▁사양	-10.6925
▁출시할	-10.6928
▁획정	-10.6928
코스	-10.6931
셜	-10.6935
▁짓	-10.6936
▁철거	-10.6939
▁유로	-10.694
낙	-10.6943
▁살인	-10.6944
선의	-10.6946
▁정부에	-10.6946
▁렌즈	-10.6951
노조	-10.6952
▁‘2015	-10.6953
▁도약	-10.6953
▁사안	-10.6954
ay	-10.6955
교사	-10.6957
▁뒷받침	-10.6957
▁응모	-10.696
▁성우	-10.6965
▁내내	-10.6967
▁위에서	-10.6968
▁특파원	-10.6969
▁설립된	-10.697
▁꺼내	-10.6971
▁테러방지법	-10.6971
▁않았던	-10.6974
타임	-10.6975
▁인지	-10.6975
▁회수	-10.6977
▁정보가	-10.6977
▁컨설팅	-10.6979
성은	-10.698
▁권고	-10.6982
▁빠진	-10.6983
▁여성의	-10.6986
▁보아	-10.6986
▁속성	-10.6988
바이	-10.6988
▁중국과	-10.6989
CEO	-10.699
▁출처	-10.699
시마	-10.6991
▁천연	-10.6999
▁꼽	-10.7002
▁순으로	-10.7003
놓은	-10.7004
▁최고위원은	-10.7004
인력	-10.7004
▁있을까	-10.7006
▁간담회를	-10.7006
▁기여할	-10.7007
▁사냥	-10.7008
▁당분간	-10.7008
▁이정	-10.701
▁훈련을	-10.7012
▁부회장은	-10.7012
▁중국이	-10.7015
▁맥주	-10.702
최근	-10.7021
▁도달	-10.7022
▁운영체제	-10.7022
디스플레이	-10.7025
▁획득한	-10.7027
▁직원이	-10.7034
▁개봉	-10.7036
▁함께하는	-10.7037
▁협상을	-10.7038
▁공연을	-10.7039
▁게임으로	-10.7041
겼다	-10.7044
▁개인의	-10.7045
톨	-10.7045
▁위원장이	-10.7046
▁창당	-10.7048
▁아직까지	-10.7054
AS	-10.7056
▁정원	-10.7057
▁무상	-10.7058
▁각국	-10.7061
ho	-10.7062
▁장수	-10.7062
▁마포구	-10.7068
▁올레	-10.707
▁가능할	-10.7071
듯이	-10.7071
같이	-10.7072
▁대부분이	-10.7075
▁있으니	-10.7075
▁물량	-10.7078
▁몸에	-10.708
▁차별화	-10.7082
▁아니라고	-10.7083
▁신라	-10.7084
지요	-10.7088
▁모습으로	-10.7089
하더라도	-10.7089
▁반응이	-10.709
▁쌓	-10.7092
▁정보보호	-10.7092
▁케이스	-10.7092
▁아내	-10.7092
▁편의	-10.7094
▁제목	-10.7102
▁노사	-10.7105
▁기업으로	-10.7105
▁금속	-10.7106
▁사고를	-10.7107
▁살펴보면	-10.7111
▁회전	-10.7113
▁친노	-10.7117
▁펼치고	-10.7117
▁속도로	-10.7118
▁코스닥	-10.7118
기계	-10.7122
▁인근에	-10.7123
액은	-10.7124
▁마약	-10.7125
에게서	-10.7128
▁묻	-10.7131
▁사태가	-10.7133
리스트	-10.7134
▁원격	-10.7138
▁종종	-10.7141
▁줄일	-10.7141
▁클래식	-10.7143
▁발동	-10.7147
새누리당	-10.7154
▁단말	-10.7156
▁별다른	-10.7156
▁자문	-10.7161
율은	-10.7163
▁몸매	-10.7164
▁시청자	-10.7166
▁사운드	-10.7167
97	-10.7167
헤	-10.7168
▁무게	-10.7168
끼리	-10.7169
▁대비해	-10.7169
▁임상	-10.7171
▁소송을	-10.7172
▁비용이	-10.7173
▁합성	-10.7174
ly	-10.7174
▁그에	-10.7176
▁급증	-10.7177
▁귀국	-10.7177
▁근접	-10.7178
▁포장	-10.718
▁기업들의	-10.7182
야마	-10.7183
▁송파구	-10.7185
▁개장	-10.7188
▁야당은	-10.7188
▁에어컨	-10.719
▁북구	-10.7191
▁불가	-10.7192
세요	-10.7192
▁중국인	-10.7193
▁아니었다	-10.7195
홀에서	-10.7196
▁오르	-10.7198
▁무리	-10.7198
▁지나치게	-10.7199
수로	-10.7202
고속도로	-10.7202
▁이번이	-10.7202
받고	-10.7203
띠	-10.7205
▁은하	-10.721
▁흐	-10.721
▁병행	-10.7211
편의	-10.7212
71	-10.7212
▁한달	-10.7212
▁기기를	-10.7215
디지털	-10.7215
스코	-10.7217
▁고성능	-10.722
▁헤어	-10.7221
였	-10.7222
▁창업자	-10.7223
수단	-10.7224
▁납품	-10.7226
▁규칙	-10.7226
▁처리를	-10.7229
▁k	-10.7232
▁거래소	-10.7232
▁무한	-10.7233
▁www	-10.7233
▁BMW	-10.7235
삭	-10.7236
▁표명	-10.7236
▁연습	-10.7238
▁야외	-10.7239
보건	-10.7239
하우스	-10.724
▁충족	-10.7241
대한	-10.7252
▁기체	-10.7252
▁손해	-10.7253
▁기원	-10.7253
▁유용한	-10.7254
▁지금도	-10.7257
이니	-10.7258
▁코어	-10.7259
▁명시	-10.7262
자본	-10.7264
87	-10.7268
▁남쪽	-10.7269
▁의류	-10.7272
기술을	-10.7275
▁트리	-10.7276
만여	-10.7277
▁노동시장	-10.7277
▁사후	-10.7278
▁분위기가	-10.7279
▁정치를	-10.7279
펠	-10.728
▁전투를	-10.7281
▁찾아가	-10.7281
▁탈락	-10.7283
▁했	-10.7283
▁재무	-10.7283
켜	-10.7284
▁시는	-10.7284
▁한류	-10.7288
▁가공	-10.7289
▁의존	-10.7291
▁용산구	-10.7294
쌍	-10.7294
▁것보다	-10.7297
리안	-10.73
▁신청을	-10.73
지사	-10.7301
▁먹을	-10.7302
국장	-10.7305
▁폐기	-10.7306
함이	-10.7307
▁않았다고	-10.7307
▁선정됐다	-10.7308
▁캠퍼스	-10.7309
▁쉽고	-10.731
강화	-10.7312
▁질문을	-10.7313
▁영국의	-10.7315
▁복구	-10.7316
▁연결해	-10.7316
▁녹음	-10.7317
▁썼다	-10.7317
▁51	-10.7319
▁수준에	-10.732
▁환경에서	-10.732
▁일본에서	-10.7324
▁OS	-10.7324
꾼	-10.7324
▁당원	-10.733
텔레콤이	-10.7332
▁아니냐	-10.7341
비아	-10.7341
▁합리적인	-10.7342
▁줄여	-10.7345
▁재단	-10.7346
▁유래	-10.7346
▁모았다	-10.7348
▁갔다	-10.7349
▁신뢰를	-10.735
▁주장하는	-10.735
데다	-10.7355
▁확대하고	-10.7357
▁본회의에서	-10.7358
무기	-10.7359
▁사고로	-10.7359
▁엔씨소프트	-10.7359
▁광고를	-10.736
실을	-10.736
▁구역	-10.7364
▁평생	-10.7367
▁a	-10.7369
▁중에는	-10.7372
▁출신의	-10.7372
▁인구는	-10.7374
이었지만	-10.7374
▁켜	-10.7375
▁타이틀	-10.7376
혹	-10.738
▁이하의	-10.738
수사	-10.7381
가운데	-10.7382
▁견제	-10.7386
▁분석이	-10.7388
▁든	-10.7389
▁결심	-10.7391
▁돌아	-10.7393
▁진행한다고	-10.7395
▁올라가	-10.7395
▁남긴	-10.7397
▁드러나	-10.7401
▁심화	-10.7401
▁1995	-10.7402
뢰	-10.7402
▁서비스하는	-10.7403
부에	-10.7403
▁출판	-10.7405
▁어려워	-10.7406
▁높았다	-10.7408
▁성분	-10.7408
▁이벤트도	-10.7409
▁센	-10.7413
▁검찰에	-10.7414
공동	-10.7416
▁협박	-10.7416
▁록	-10.7416
아웃	-10.7417
▁사용자의	-10.7425
▁하이브리드	-10.7427
티브	-10.7427
▁갖춰	-10.7428
▁1970	-10.7429
▁징계	-10.7431
▁끌어	-10.7431
▁이것	-10.7433
il	-10.7433
▁부문에서	-10.7434
▁집계	-10.7435
ocrysal	-10.7437
▁130	-10.7437
▁잡지	-10.7439
받	-10.744
▁삼아	-10.744
▁모델들이	-10.7443
▁화소	-10.7443
▁지금의	-10.7444
73	-10.7444
관에서	-10.7446
▁주민들이	-10.7448
▁인민	-10.7448
▁기구	-10.745
량은	-10.745
▁향한	-10.7452
▁제일모직	-10.7452
ma	-10.7453
공무원	-10.7455
방안	-10.7457
▁유가	-10.7458
▁강요	-10.7458
▁캠페인을	-10.7462
▁또다시	-10.7463
▁농협	-10.7463
▁내놨다	-10.7464
▁감안하면	-10.7466
▁아트	-10.7468
▁구글은	-10.747
년만에	-10.7471
정의	-10.7471
▁반대하는	-10.7471
타이	-10.7471
▁승용차	-10.7474
▁행사가	-10.7478
신고	-10.7478
설계	-10.7479
무역	-10.7479
안보	-10.7479
▁붉은	-10.7482
▁유아	-10.7482
맹	-10.7483
트는	-10.7484
▁묻는	-10.7485
▁p	-10.7486
▁상태가	-10.7487
▁자제	-10.7487
층에	-10.7487
▁올바른	-10.7488
캠프	-10.7488
▁벌어진	-10.749
▁자랑	-10.7491
▁공화국	-10.7492
인가	-10.7493
▁그러한	-10.7502
건강	-10.7502
달라고	-10.7502
▁진행해	-10.7502
▁재현	-10.7504
")	-10.7504
▁이것을	-10.7505
호를	-10.7506
▁연구원	-10.7508
되거나	-10.7509
▁늘어나	-10.7509
▁한다면	-10.7511
▁맡	-10.7511
▁말할	-10.7511
▁프랜차이즈	-10.7511
받을	-10.7511
▁위기에	-10.7512
▁협의를	-10.7514
▁소비자들이	-10.7515
▁대장	-10.7516
▁63	-10.7516
▁부스	-10.7517
▁스웨덴	-10.7519
전선	-10.752
미래	-10.7523
▁저희	-10.7527
보니	-10.7527
▁싶어	-10.7528
▁전설	-10.7537
▁의결	-10.754
방지	-10.7541
▁기록하며	-10.7543
▁측이	-10.7544
▁깔	-10.7545
▁만남	-10.755
▁방통위	-10.7552
▁간다	-10.7554
▁서해	-10.7554
▁국민들이	-10.7555
▁존중	-10.7556
▁보냈다	-10.7556
▁증권사	-10.7556
▁전용면적	-10.7556
▁가시	-10.7556
▁강화해	-10.7557
▁박종	-10.756
▁호응을	-10.7561
▁맞지	-10.7561
괴	-10.7566
촉	-10.7566
▁지역사회	-10.7566
▁고리	-10.7567
▁배경으로	-10.7568
▁추석	-10.7568
해지는	-10.7568
▁않다고	-10.7569
▁유저들이	-10.7569
▁취하고	-10.757
▁만기	-10.7571
현장	-10.7571
▁재배	-10.7572
▁훈	-10.7572
▁요구를	-10.7572
▁스마트워치	-10.7572
PS	-10.7575
▁공을	-10.7576
▁전무	-10.7578
하였으나	-10.7579
▁철저한	-10.7585
소프트	-10.7585
▁참석자들이	-10.7588
▁몽	-10.7588
la	-10.7591
▁KTX	-10.7595
▁심한	-10.7596
▁이익을	-10.7598
▁메탈	-10.7598
▁동네	-10.7604
▁규명	-10.7605
▁출국	-10.7609
▁공주	-10.7613
▁마련한	-10.7615
▁지사는	-10.7615
▁매수	-10.7616
▁북한군	-10.7616
ol	-10.7618
MC	-10.7619
▁이곳	-10.762
▁기간에	-10.7622
▁판교	-10.7622
▁넘치는	-10.7624
ec	-10.7625
▁판매가	-10.7627
▁이적	-10.7628
▁일자리를	-10.7628
사에서	-10.7628
봇	-10.7628
▁맞이	-10.7628
▁소비자가	-10.7628
▁차지하고	-10.763
이므로	-10.7631
▁군은	-10.7637
부장	-10.7639
▁주최	-10.7642
94	-10.7644
대사	-10.7648
▁일반인	-10.7648
▁신년	-10.7648
▁NHN	-10.7649
신도시	-10.7649
머니	-10.7649
▁경위	-10.7652
▁떨어졌다	-10.7653
▁v	-10.7653
▁원주	-10.7659
▁등장한다	-10.7661
링크	-10.7663
▁기조	-10.7666
▁균형	-10.7667
▁벨	-10.7668
만원에	-10.767
▁추측	-10.7672
▁성장할	-10.7672
▁예전	-10.7674
역을	-10.7674
▁넘기	-10.7679
▁받아야	-10.768
▁낮아	-10.768
▁나의	-10.768
▁부정적인	-10.7681
▁조종	-10.7685
▁디지털데일리	-10.7686
▁테스트를	-10.7687
▁타격	-10.7688
▁사회의	-10.7689
▁m	-10.769
▁번째로	-10.7692
구나	-10.7695
▁금연	-10.7696
▁후면	-10.7697
▁협약	-10.7697
▁다이어트	-10.7698
GHz	-10.7698
▁억제	-10.7698
▁소수	-10.7699
▁활용하는	-10.7699
▁띄	-10.77
▁국민을	-10.7703
▁의정부	-10.7704
▁첫째	-10.7705
▁탐	-10.7706
▁편리하게	-10.771
▁자체를	-10.7711
맛	-10.7711
관이	-10.7712
▁결성	-10.7713
▁원자력	-10.7714
▁접목	-10.7716
관은	-10.772
▁용량	-10.772
▁소련	-10.7721
대통령	-10.7724
▁이로써	-10.7725
▁자사의	-10.7727
▁적용했다	-10.7728
리오	-10.7731
▁카메라를	-10.7732
▁사업의	-10.7733
▁추진한다	-10.7735
▁강조했습니다	-10.7735
▁게임이다	-10.7736
▁비중을	-10.7736
▁정확하게	-10.7736
▁대외	-10.7739
▁작용	-10.774
▁않으며	-10.774
팝	-10.7742
▁철회	-10.7747
▁대구시	-10.7748
휘	-10.7748
▁숫자	-10.7749
▁당한	-10.7754
08	-10.7755
▁부르는	-10.7756
▁공시	-10.7756
▁나를	-10.7757
▁방침	-10.7757
▁스카이	-10.7758
▁치고	-10.7758
▁않는다고	-10.776
▁사람도	-10.776
▁과장	-10.7763
▁집회	-10.7763
▁찾	-10.7764
요금	-10.7765
▁성남시	-10.7765
이스	-10.7765
▁분석이다	-10.7766
▁증대	-10.7767
는다	-10.7769
▁단기	-10.7771
▁샤오미	-10.7772
▁가뭄	-10.7773
▁후보로	-10.7774
었으며	-10.7774
모드	-10.7774
▁쓰이는	-10.7774
▁이후에는	-10.7776
▁세웠다	-10.7777
▁이후에도	-10.7777
▁o	-10.7779
또	-10.7779
점으로	-10.7779
▁국민들의	-10.7779
▁조합원	-10.7781
셨	-10.7783
▁기지	-10.7786
▁부패	-10.779
소재	-10.7792
큰	-10.7796
▁f	-10.7796
▁비록	-10.7799
▁있었	-10.7801
▁공모전	-10.7803
문학	-10.7804
▁검토하고	-10.7807
온라인	-10.7807
▁준수	-10.7809
▁유권자	-10.7811
▁보일	-10.7812
▁일각에서는	-10.7813
특위	-10.7815
▁자국	-10.7818
▁대역	-10.7818
▁부채	-10.782
▁불참	-10.7824
▁죽음	-10.7825
▁해고	-10.7827
▁고도화	-10.7828
의회	-10.7829
▁누리	-10.7834
방법	-10.7835
▁잇는	-10.7835
리고	-10.7835
묵	-10.7836
82	-10.7837
▁비싼	-10.7838
▁57	-10.7838
▁장식	-10.7838
▁측면	-10.7839
하므로	-10.7842
▁이상학	-10.7842
▁위주로	-10.7844
캠퍼스	-10.7847
▁무상급식	-10.7848
▁농가	-10.7849
▁혈액	-10.7851
됐	-10.7852
▁과도한	-10.7854
▁편입	-10.786
▁악성코드	-10.7861
택시	-10.7861
제한	-10.7861
률을	-10.7862
▁일산	-10.7862
▁시민단체	-10.7863
▁시너지	-10.7864
▁굳이	-10.7864
▁구단	-10.7865
회에	-10.7866
▁교황	-10.7867
=	-10.7867
ce	-10.7868
▁왼쪽부터	-10.7871
th	-10.7874
▁서울뉴시스조수	-10.7878
MHz	-10.7879
▁키워드	-10.788
▁사물	-10.7882
▁백신	-10.7883
▁남구	-10.7885
▁베이	-10.7887
▁적응	-10.7887
▁맛을	-10.7891
▁그려	-10.7893
▁지사	-10.7893
▁일부를	-10.7897
▁자신들의	-10.7899
▁성장률	-10.79
투표	-10.7903
▁국방위원회	-10.7905
임에도	-10.7905
▁존재하는	-10.7906
▁규	-10.7906
▁오피스	-10.7907
▁도서관	-10.7908
▁세상	-10.7909
▁유형	-10.7909
▁마음에	-10.7912
▁점에	-10.7913
▁지스타	-10.7914
치기	-10.7914
사무소	-10.7915
▁관리를	-10.7915
▁이송	-10.7916
▁정상회담	-10.7918
▁경기장	-10.7919
▁인테리어	-10.7922
▁교통사고	-10.7924
▁꼽았다	-10.7924
밴드	-10.7924
▁암호화폐	-10.7924
▁최적의	-10.7926
회에서	-10.793
▁패치	-10.793
▁재벌	-10.793
▁한수진사회자	-10.7931
▁주재	-10.7935
li	-10.7937
▁사항	-10.7939
▁증언	-10.7939
▁상승했다	-10.7939
▁명동	-10.794
대에서	-10.7941
▁링크	-10.7943
▁과정에	-10.7945
께서	-10.7946
▁준공	-10.7947
▁많지	-10.7953
▁여성이	-10.7956
▁후에는	-10.796
▁지난주	-10.796
',	-10.796
▁참고로	-10.7961
▁위기를	-10.7963
▁경력	-10.7964
▁상주	-10.7964
▁경비	-10.7969
▁뿐이다	-10.7972
▁평가가	-10.7972
▁칩	-10.7972
▁총리의	-10.7975
광주	-10.7979
▁본사에서	-10.7979
▁54	-10.798
▁조율	-10.798
▁방치	-10.7983
▁꼬	-10.7985
▁책정	-10.7987
▁곳곳에	-10.7988
▁환율	-10.7994
▁증정	-10.7994
▁델	-10.8001
든지	-10.8001
▁본선	-10.8001
▁제공하기	-10.8001
▁옵션	-10.8002
▁지역으로	-10.8003
현대	-10.8005
▁어깨	-10.8008
▁연료	-10.8009
▁가을	-10.8009
▁개발했다	-10.8009
어가	-10.8009
▁서울시는	-10.8011
에서부터	-10.8014
▁한나라당	-10.8014
▁처음에는	-10.8014
▁분명	-10.8014
▁연봉	-10.8016
▁형식	-10.8018
▁시공	-10.8022
으로서의	-10.8023
브라	-10.8024
▁관객	-10.8027
▁원의	-10.8028
▁로비	-10.8029
▁이용자들이	-10.803
어를	-10.803
억원이	-10.8031
중학교	-10.8031
▁받으며	-10.8031
▁확보한	-10.8032
▁빨라	-10.8032
해질	-10.8036
▁사무	-10.8037
▁가사	-10.8043
▁보여주고	-10.8044
▁아이를	-10.8045
▁입사	-10.8046
▁사항은	-10.8047
▁모델은	-10.8048
킷	-10.805
▁발전에	-10.805
▁격려	-10.8051
품을	-10.8053
▁99	-10.8053
▁위의	-10.8053
▁없어서	-10.8059
07	-10.8059
▁인사들	-10.8061
정도	-10.8064
▁김재	-10.8065
늘	-10.8065
▁1996	-10.807
▁국세청	-10.8071
▁체크	-10.8071
▁누릴	-10.8072
IP	-10.8077
▁챔피언	-10.8078
DC	-10.8078
▁김진	-10.8078
▁얘기다	-10.808
지기	-10.8081
▁해방	-10.8082
▁진정	-10.8085
▁문제와	-10.8085
▁측의	-10.8088
식에서	-10.8088
▁북한에	-10.8089
▁임무	-10.8089
제약	-10.8091
▁결론	-10.8091
02	-10.8092
▁이끌고	-10.8092
파이	-10.8094
▁모색	-10.8095
▁보육	-10.8096
내고	-10.8099
▁차이	-10.8104
책을	-10.8104
효과	-10.8105
▁뜻은	-10.8105
우주	-10.8106
▁경우에	-10.8107
("	-10.8107
▁붙여	-10.8109
▁갈등이	-10.8109
되던	-10.811
▁환경에	-10.811
▁타결	-10.8111
▁인증을	-10.8112
▁법원	-10.8112
▁있어요	-10.8113
▁남성이	-10.8116
▁참배	-10.8116
로써	-10.8119
▁생기는	-10.8119
▁문장	-10.8121
▁제고	-10.8122
▁해결할	-10.8124
▁갈등을	-10.8125
▁강행	-10.8126
▁찾고	-10.8127
▁클래스	-10.8128
경찰	-10.8131
▁야간	-10.8133
▁예정된	-10.8133
건을	-10.8138
▁활동에	-10.8139
롭게	-10.8141
▁나타난	-10.8142
▁바닥	-10.8143
▁주방	-10.8145
▁상금	-10.8146
상에서	-10.8146
▁담당하는	-10.8148
▁액	-10.8149
▁인천시	-10.8151
▁찍어	-10.8151
▁아이디어를	-10.8153
▁랜섬웨어	-10.8153
▁마쳤다	-10.8153
▁넷마블게임즈	-10.8154
▁없으며	-10.8156
▁안전성	-10.8159
▁유력	-10.8159
▁실망	-10.8159
▁튀	-10.8161
▁당대표	-10.8161
▁박사는	-10.8162
▁같다고	-10.8166
▁못한다	-10.8166
▁업계의	-10.817
MB	-10.8171
▁김씨는	-10.8171
▁멀	-10.8173
▁입당	-10.8175
▁오리지널	-10.8176
▁IBM	-10.8182
▁박물관	-10.8182
▁움직이는	-10.8183
봐	-10.8184
평화	-10.8184
▁설비	-10.8184
▁가계	-10.8187
있	-10.8187
공학	-10.8187
▁바랍니다	-10.8192
지면서	-10.8193
▁유가족	-10.8194
▁통신비	-10.8195
▁조현아	-10.8196
스턴	-10.8196
원과	-10.8202
군에	-10.8202
▁되도록	-10.8203
▁곳이다	-10.8207
▁로고	-10.8207
▁자금을	-10.8208
▁의상	-10.8208
교육청	-10.8208
ac	-10.8208
▁전반에	-10.8209
▁원인을	-10.8213
▁늘어나고	-10.8213
▁수원시	-10.8213
▁화제가	-10.8214
▁들어갈	-10.8215
▁늘어나는	-10.8216
▁살펴보고	-10.8216
▁선점	-10.822
▁때에는	-10.8223
▁공조	-10.8225
네트워크	-10.8225
▁그쳤다	-10.8226
▁기본적인	-10.8227
상태	-10.8227
▁처분	-10.8229
▁소재로	-10.8229
▁했을	-10.823
▁기사를	-10.8231
▁조건을	-10.8234
▁싸움	-10.8234
범죄	-10.8235
▁남한	-10.8236
위가	-10.825
제작	-10.8251
단과	-10.8254
92	-10.8254
비율	-10.8257
론이	-10.8258
▁당국은	-10.826
▁갖게	-10.826
▁산업의	-10.8262
▁NH	-10.8263
▁적발	-10.8263
해지고	-10.8265
▁특성상	-10.8269
▁선을	-10.8269
권이	-10.827
▁왜곡	-10.8271
▁고용노동부	-10.8277
▁배당	-10.8277
▁추구	-10.8278
스케	-10.828
▁서양	-10.8285
▁적을	-10.8287
▁오염	-10.8289
▁넷플릭스	-10.829
▁압수수색	-10.8294
▁이듬해	-10.8294
▁올리는	-10.8295
수익	-10.8295
▁예상되는	-10.8298
▁지디넷코리아	-10.8302
▁태어난	-10.8302
액을	-10.8302
▁사로잡	-10.8303
▁주가가	-10.8303
▁면적	-10.8305
▁털	-10.8306
▁가짜	-10.8307
▁비율	-10.8308
▁다크	-10.8311
▁출시한다고	-10.8312
▁성공을	-10.8317
▁아웃	-10.8319
▁끊임없이	-10.8319
▁핀	-10.832
▁동북아	-10.8324
▁면역	-10.8325
이든	-10.8326
퉁	-10.833
▁적립	-10.833
▁출마를	-10.8331
▁기술력을	-10.8332
▁맞춘	-10.8332
드라	-10.8335
▁흉	-10.8335
▁덱	-10.8336
▁고개를	-10.8337
▁고유	-10.834
공급	-10.8341
▁벌금	-10.8343
▁희생자	-10.8344
▁유저들의	-10.8346
▁안전을	-10.8346
▁무렵	-10.8348
▁사전등록	-10.8348
▁역사교과서	-10.8349
▁중국은	-10.835
▁의원들은	-10.835
▁헌	-10.8351
▁미국이	-10.8351
▁킹	-10.8351
▁돌입	-10.8354
▁북쪽	-10.8355
▁캐시	-10.8356
▁줄어든	-10.8356
▁판매량	-10.8358
시장을	-10.8361
▁음료	-10.8364
▁학생들의	-10.8368
TC	-10.8368
▁간담회에서	-10.8371
대학원	-10.8374
▁지적도	-10.8375
▁없도록	-10.8375
▁PD	-10.8378
▁속하는	-10.8378
▁행위를	-10.8378
스크	-10.8378
▁발표를	-10.8381
낸다	-10.8383
▁소규모	-10.8384
▁장병	-10.8388
ph	-10.8388
▁부모님	-10.8389
▁메모	-10.839
▁Kakao	-10.8394
▁스마트폰으로	-10.8396
▁도와	-10.8397
▁커뮤니케이션	-10.8398
▁이통	-10.8399
▁라인업	-10.8399
▁새누리당의	-10.8399
추진	-10.84
▁전달했다	-10.8404
▁바라	-10.8405
▁최적화된	-10.841
동을	-10.8411
▁기상	-10.8413
▁상실	-10.8414
나갈	-10.8415
06	-10.8415
▁발휘	-10.8418
▁대상을	-10.8418
▁곳을	-10.8419
안에	-10.8423
▁대답	-10.8426
▁후보자가	-10.8427
▁호텔에서	-10.8431
▁인적	-10.8433
종이	-10.8433
▁선호하는	-10.8433
▁유포	-10.8433
▁흐름	-10.8434
▁숙박	-10.8436
▁뚫	-10.8437
▁인천공항	-10.8438
▁변화에	-10.8439
▁기술의	-10.8439
▁지원해	-10.844
▁요청했다	-10.8441
보면	-10.8442
▁세종로	-10.8442
여건	-10.8442
▁잠실	-10.8443
▁북핵	-10.8443
증을	-10.8443
하니	-10.8443
▁연결하는	-10.8444
발을	-10.8447
▁편의를	-10.8449
▁대리점	-10.8454
▁목록	-10.8457
▁허브	-10.8458
▁시티	-10.8461
▁모자	-10.8463
▁파이	-10.8464
보드	-10.8465
▁스트리밍	-10.8467
▁출장	-10.8467
카와	-10.847
등록	-10.8473
▁우리나라의	-10.8473
▁겪는	-10.8474
마이	-10.8475
개사	-10.8478
▁거절	-10.848
마는	-10.8481
▁마주	-10.8481
▁구글의	-10.8481
▁말은	-10.8483
▁회장과	-10.8484
분에	-10.8487
▁그렇다고	-10.8487
▁기대한다고	-10.8487
▁물론이고	-10.8488
▁제안했다	-10.8488
▁적자	-10.849
▁홈페이지를	-10.8491
▁유니	-10.8492
▁상업	-10.8493
▁차를	-10.8495
위의	-10.8495
았던	-10.8497
▁되찾	-10.8499
ag	-10.85
▁느끼는	-10.8504
▁예산안	-10.8505
▁쿠폰을	-10.8506
▁팀을	-10.8507
넬	-10.8511
▁일하는	-10.8511
특별	-10.8512
▁투어	-10.8512
▁게이머	-10.8512
▁구성됐다	-10.8513
▁같아요	-10.8514
오늘	-10.8521
▁시점에서	-10.8522
놀	-10.8526
▁했다는	-10.8529
▁횟수	-10.853
▁빛을	-10.8531
▁잡았다	-10.8532
▁나쁜	-10.8535
▁시간은	-10.8537
되도록	-10.8541
▁비판을	-10.8542
▁강화할	-10.8543
▁에코	-10.8545
지원센터	-10.8548
전용	-10.8548
▁박람회	-10.8548
일보	-10.855
▁감각	-10.855
▁아닙니다	-10.855
▁이걸	-10.8552
쇄	-10.8553
▁결론을	-10.8553
카카오	-10.8555
(19	-10.8555
▁어렵다는	-10.8555
학적	-10.8555
▁대피	-10.8555
▁확실히	-10.8556
▁MWC	-10.8557
하시	-10.8557
▁이용자는	-10.8557
▁소집	-10.856
▁팀이	-10.8561
▁보상을	-10.8562
하러	-10.8562
▁구성되어	-10.8562
▁제휴를	-10.8563
▁우유	-10.8565
▁않습니까	-10.8565
끔	-10.8566
▁혼란	-10.8567
였으며	-10.8568
▁크로스	-10.8569
봐야	-10.8571
▁전합니다	-10.8576
팀이	-10.8576
학원	-10.8578
▁확진자	-10.8578
▁믿고	-10.8579
▁여러가지	-10.8579
▁병원에서	-10.8585
교육을	-10.8585
▁느낌	-10.8586
▁드는	-10.8586
▁도출	-10.8587
▁계획입니다	-10.8587
▁잡은	-10.8589
브랜드	-10.8591
▁묶	-10.8596
티스	-10.8597
경남	-10.86
이지	-10.8604
▁전역	-10.8607
▁계절	-10.8608
루스	-10.861
▁한계	-10.8614
주민	-10.8614
부터는	-10.8615
▁측근	-10.8615
▁컨셉	-10.8616
▁동화	-10.8616
▁그야말로	-10.8619
놈	-10.862
▁분석을	-10.862
▁시작됐다	-10.862
▁됐	-10.8624
▁확립	-10.8626
▁소개하는	-10.8627
▁운영을	-10.8627
세로	-10.8629
▁늘어났다	-10.8629
꼬	-10.863
타워	-10.8631
▁흐름을	-10.8632
▁포함돼	-10.8636
코리아는	-10.864
▁충격을	-10.864
▁최악의	-10.8642
do	-10.8645
▁한국은행	-10.8645
략	-10.8645
카메라	-10.8645
▁거두	-10.8648
The	-10.8648
▁양쪽	-10.8649
▁랩	-10.865
▁그러	-10.865
▁고소	-10.8652
▁갓	-10.8652
▁정면	-10.8652
▁세탁기	-10.8655
바이오	-10.8656
▁한계가	-10.8656
▁차량이	-10.8657
시를	-10.8658
▁모은	-10.8661
▁사람과	-10.8661
▁실시하고	-10.8662
▁이용하면	-10.8662
▁권한	-10.8664
▁관점에서	-10.8665
▁베스트	-10.8666
사태	-10.8667
▁사용하지	-10.8669
▁58	-10.8674
만명을	-10.8677
▁봅니다	-10.8678
▁양측	-10.8678
▁출신으로	-10.868
▁잇	-10.868
▁AR	-10.868
▁급여	-10.8681
▁문화체육관광부	-10.8682
미사일	-10.8685
엔진	-10.8688
▁서류	-10.8689
▁신장	-10.8689
▁왔	-10.8689
▁규제를	-10.8691
파일	-10.8691
▁스마트홈	-10.8692
▁보고서	-10.8694
▁부착	-10.8694
사이	-10.8694
▁클리어	-10.8696
▁김경	-10.8696
▁검출	-10.8696
▁리그오브레전드	-10.8696
▁인생	-10.8697
▁삼성전자와	-10.8697
▁차원	-10.8702
▁손가락	-10.8704
안정	-10.8705
▁플	-10.8707
▁에디션	-10.8707
▁비주류	-10.8707
▁쓰기	-10.871
▁같	-10.871
▁서비스다	-10.8713
▁밝은	-10.8713
동의	-10.8713
▁토론회	-10.8713
▁저하	-10.8714
▁기능은	-10.8714
쇼핑	-10.8716
▁지내	-10.8718
맞	-10.872
▁여유	-10.8721
므로	-10.8722
정보를	-10.8724
▁순수	-10.8725
▁느껴	-10.8728
▁장관과	-10.8729
▁높고	-10.873
▁헬기	-10.873
▁겨우	-10.8733
▁상당수	-10.8736
▁지방자치단체	-10.8737
설비	-10.8738
▁신인	-10.8739
모토	-10.8739
▁진주	-10.8739
▁상관없이	-10.874
og	-10.8741
▁보이며	-10.8742
▁가벼운	-10.8743
▁윤리	-10.8747
인사	-10.8747
팀장	-10.8748
▁회사를	-10.8749
닉스	-10.875
▁안전하게	-10.8753
▁느낌이	-10.8755
▁정부서울청사에서	-10.8756
▁고객은	-10.8757
▁얘기가	-10.8757
▁배정	-10.8762
▁한쪽	-10.8765
▁서울에서	-10.8766
▁증세	-10.8768
▁군의	-10.8768
▁공익	-10.8769
▁언급한	-10.8771
▁석유	-10.8772
▁폭탄	-10.8772
▁넘어서	-10.8773
▁브리핑을	-10.8775
▁SM	-10.8778
▁혁신적인	-10.8778
▁원리	-10.8779
▁구글이	-10.878
▁중순	-10.878
노트	-10.8782
▁개정안을	-10.8783
▁롯데백화점	-10.8783
▁방침을	-10.8789
참여	-10.8789
리어	-10.8791
움을	-10.8792
▁미국은	-10.8794
▁손잡고	-10.8795
▁마스크	-10.8796
▁난이도	-10.8797
차로	-10.8797
▁영역을	-10.88
▁이유다	-10.8802
▁우승을	-10.8803
▁심사를	-10.8806
▁키즈	-10.8806
구글	-10.8806
▁간사	-10.8806
총회	-10.8807
▁라이트	-10.8807
93	-10.8808
▁예비후보	-10.8809
▁세미나	-10.881
▁제출한	-10.881
▁예정이며	-10.8811
▁공식적으로	-10.8811
▁올레드	-10.8812
▁매니저	-10.8816
▁67	-10.8817
▁크지	-10.8819
▁과정이	-10.8819
▁하거나	-10.882
안이	-10.8821
▁이른	-10.8821
▁면제	-10.8821
▁점수	-10.8822
코드	-10.8823
▁검사를	-10.8824
ID	-10.8824
▁우려를	-10.8824
하겠습니다	-10.8825
다며	-10.8827
▁부른다	-10.8829
▁규모를	-10.883
▁키보드	-10.8831
▁탁	-10.8832
민주	-10.8837
에게도	-10.8837
▁있었으나	-10.8838
푸드	-10.8838
▁체험할	-10.884
▁전체적으로	-10.8841
솔루션	-10.8845
럭	-10.8847
▁근로	-10.8848
▁정도다	-10.885
▁적어도	-10.8852
비전	-10.8855
▁롯데마트	-10.8856
회의에서	-10.8858
▁전액	-10.8858
all	-10.886
▁더블	-10.886
▁베타	-10.8861
▁넓	-10.8861
별로는	-10.8862
▁움직임을	-10.8863
▁색깔	-10.8863
▁유발	-10.8864
▁박성	-10.8866
▁도입을	-10.8869
액이	-10.887
▁접한	-10.8873
여대	-10.8873
힘	-10.8876
▁손으로	-10.888
▁홈플러스	-10.8881
▁전장	-10.8882
▁제작된	-10.8885
▁진로	-10.8886
상에	-10.8887
▁출시했다고	-10.8891
▁마케팅을	-10.8892
협상	-10.8893
▁추후	-10.8894
▁응급	-10.8894
▁의원회관에서	-10.8899
공업	-10.89
▁Re	-10.8901
▁나타냈다	-10.8902
▁재보선	-10.8905
▁후보의	-10.891
▁마찬가지	-10.891
▁못하게	-10.8911
▁부정적	-10.8912
▁메이	-10.8914
▁로드	-10.8914
▁국면	-10.8917
▁약물	-10.8918
▁선호	-10.8921
▁대안	-10.8922
킬	-10.8924
▁내각	-10.8924
▁강화하는	-10.8925
▁자세히	-10.8925
▁회계	-10.8925
▁버튼	-10.8927
당국	-10.8927
▁보내는	-10.8929
09	-10.893
▁드리	-10.8934
▁조리	-10.8934
▁53	-10.8934
▁매장을	-10.8936
▁대량	-10.8937
▁해결을	-10.894
▁넥슨은	-10.8942
▁분할	-10.8942
▁침체	-10.8942
▁국감	-10.8945
투어	-10.8945
▁올리고	-10.8945
▁이혼	-10.8945
▁출간	-10.8947
▁당부	-10.8949
▁철수	-10.895
▁차관	-10.895
낭	-10.8954
▁대우	-10.8955
▁전체를	-10.8956
▁불교	-10.8958
복을	-10.8958
▁씨를	-10.8961
)'	-10.8962
▁만족도	-10.8962
▁권위	-10.8963
▁박정희	-10.8966
▁조사에서	-10.8968
▁칭	-10.897
▁흔들	-10.897
▁러	-10.8971
et	-10.8972
▁줄이고	-10.8975
▁손님	-10.8975
▁저가	-10.8976
▁실적이	-10.8978
▁족	-10.8979
▁줄이는	-10.8979
혔다	-10.8979
규제	-10.898
▁하나를	-10.8981
▁헬스케어	-10.8983
▁체결했다고	-10.8983
▁불구속	-10.8983
▁상황은	-10.8984
▁업무협약을	-10.8987
▁MC	-10.8987
▁착공	-10.8987
▁유망	-10.8988
▁외면	-10.8988
▁정보통신	-10.899
측은	-10.8991
▁수색	-10.8994
▁문건	-10.8996
▁달했다	-10.8996
▁김민	-10.8999
▁입국	-10.9001
▁주석	-10.9001
▁새정치연합은	-10.9004
▁행사장	-10.9006
▁기다리고	-10.9006
▁고객들에게	-10.9007
차가	-10.9007
▁두께	-10.9007
됐다는	-10.9007
▁누군가	-10.9008
▁올해부터	-10.9008
▁울산시	-10.9009
▁거리를	-10.901
▁전술	-10.9011
▁문의	-10.9012
▁봐도	-10.9012
▁프레임	-10.9014
▁홀로	-10.9014
▁LCD	-10.9015
▁빚	-10.9015
역에서	-10.9016
▁순방	-10.9017
▁바꿀	-10.9018
▁비율은	-10.9022
▁위축	-10.9023
MI	-10.9023
▁떼	-10.9023
▁밟	-10.9027
▁바꾸는	-10.9028
▁이스라엘	-10.9028
▁유학	-10.903
▁계층	-10.9032
▁가속화	-10.9032
▁출마한	-10.9033
국회	-10.9034
▁이용자들의	-10.9036
▁현상을	-10.9039
청소년	-10.9039
▁간편하게	-10.904
수도	-10.9043
토리	-10.9044
▁컨	-10.9044
화면	-10.9045
▁블리자드	-10.9047
▁이세돌	-10.9047
빌딩	-10.9047
▁찌	-10.9048
▁임신	-10.9053
과정에서	-10.9053
▁전반	-10.9054
인식	-10.9054
▁78	-10.9054
▁사건에	-10.9059
▁이념	-10.9063
▁전경	-10.9063
▁추정되는	-10.9064
▁발의	-10.9065
▁측에	-10.9066
사장	-10.9066
▁그건	-10.9068
인들의	-10.9069
로서는	-10.907
▁갤러리	-10.9071
aio	-10.9071
시가	-10.9072
▁젖	-10.9072
▁외신	-10.9073
토록	-10.9074
마트	-10.9075
▁공동대표	-10.9077
▁의학	-10.9078
▁위탁	-10.9079
▁반영해	-10.9079
▁역사적	-10.9081
▁주소	-10.9082
▁붙어	-10.9082
연금	-10.9083
▁곤	-10.9085
▁감성	-10.9085
였는데	-10.9085
▁지어	-10.9085
▁자식	-10.9086
▁겪	-10.9087
준비	-10.9088
▁좋겠다	-10.9089
▁1994	-10.909
깨	-10.9094
▁지니	-10.9094
▁소상공인	-10.9095
운전	-10.9096
▁물건을	-10.9097
▁시신	-10.9098
▁찾았다	-10.9099
표준	-10.91
▁소리가	-10.9101
LTE	-10.9101
예방	-10.9101
▁양식	-10.9102
▁아이들	-10.9103
▁감상	-10.9103
확	-10.9105
▁예상했다	-10.9106
▁72	-10.9107
카페	-10.9111
▁증진	-10.9111
▁정통	-10.9115
▁일치	-10.9116
시간이	-10.9116
▁복수	-10.9118
드리	-10.9119
▁상정	-10.912
▁병원을	-10.9121
▁반영한	-10.9122
▁뒤늦게	-10.9123
게임즈	-10.9123
비스	-10.9123
▁블록	-10.9124
so	-10.9124
ul	-10.9125
▁쓰지	-10.9126
▁가방	-10.9127
▁분포	-10.9129
▁성공적인	-10.9131
▁테크	-10.9132
▁구성해	-10.9133
▁분이	-10.9134
▁트래픽	-10.9136
81	-10.9138
▁몽골	-10.9142
스톤	-10.9144
▁정보통신기술	-10.9144
▁이자	-10.9145
▁장점이	-10.9146
드를	-10.9147
▁제로	-10.9149
▁수상했다	-10.9149
▁뽑아	-10.915
▁병역	-10.9152
▁담화	-10.9155
▁법안을	-10.9156
되는데	-10.9157
▁걸로	-10.9158
제공	-10.9159
▁정보기술	-10.9159
레이션	-10.916
▁뷰티	-10.916
▁즐겨	-10.9161
▁유저들에게	-10.9162
▁병원에	-10.9163
짝	-10.9163
▁몫	-10.9163
▁커버	-10.9165
▁운영한다	-10.9165
▁라이프	-10.9169
▁춘	-10.917
▁아이가	-10.9171
계를	-10.9174
성에	-10.9175
▁하사	-10.9175
▁물어	-10.9177
▁이후로	-10.9177
▁증가하는	-10.9177
▁어쨌든	-10.9178
▁화물	-10.9178
▁열려	-10.9181
력과	-10.9183
▁피로	-10.9185
▁세금을	-10.9186
되었으나	-10.9187
▁국민에게	-10.9188
웰	-10.9189
복합	-10.9192
▁기름	-10.9192
▁리더십	-10.9195
▁유리한	-10.9199
▁소음	-10.92
금액	-10.9202
▁쏠	-10.9204
단장	-10.9205
▁아이패드	-10.9206
▁특위	-10.9209
▁감소한	-10.921
▁경로	-10.9211
▁간편	-10.9212
▁박차를	-10.9213
패를	-10.9214
식으로	-10.9214
▁걸고	-10.9217
하늘	-10.9218
▁말았다	-10.9219
▁영업이익은	-10.922
▁빌딩	-10.9221
▁뜻이다	-10.9221
▁인스타그램	-10.9223
▁꺾	-10.9224
석이	-10.9228
방향	-10.9229
▁남측	-10.9229
▁거점	-10.9229
▁유선	-10.9232
CA	-10.9232
신청	-10.9233
▁서울시장	-10.9234
▁했으며	-10.9234
▁효과적으로	-10.9235
▁연수	-10.9239
▁레이더	-10.9239
잎	-10.9241
▁할아버지	-10.9242
▁네트워크를	-10.9242
▁필요성을	-10.9243
▁밀리	-10.9247
등을	-10.925
▁중부	-10.9251
▁보면서	-10.9251
시스템을	-10.9253
▁추가된	-10.9254
▁맞고	-10.9259
▁폴란드	-10.9259
▁규격	-10.9262
▁여야는	-10.9264
진이	-10.9265
▁이슬람	-10.9266
▁말하고	-10.9267
▁바르	-10.9268
▁드림	-10.9269
AT	-10.9269
▁ch	-10.927
▁용의자	-10.9273
▁여수	-10.9273
▁연령	-10.9274
▁군사적	-10.9274
▁선생님	-10.9275
▁특별법	-10.9275
▁객실	-10.9277
수의	-10.9279
▁차이를	-10.928
봤다	-10.9282
▁매진	-10.9282
통제	-10.9284
▁부각	-10.9284
▁리스크	-10.9285
▁완벽한	-10.9287
서도	-10.9288
▁희망을	-10.9288
▁독일의	-10.9291
os	-10.9291
▁필드	-10.9294
▁정규직	-10.9296
▁생태	-10.9296
▁노력이	-10.9296
▁보험료	-10.9297
▁예선	-10.9297
▁코엑스에서	-10.9298
▁확인한	-10.9298
▁정수	-10.9302
▁김병	-10.9302
▁후보자는	-10.9302
사령부	-10.9303
▁순환	-10.9304
▁이동통신사	-10.9304
진흥원	-10.9307
▁맞춤	-10.9309
▁도서	-10.9309
hai	-10.9311
▁사회공헌	-10.9311
▁옷을	-10.9312
▁의원도	-10.932
▁수록	-10.9321
▁솔로	-10.9321
▁게임게이머	-10.9322
▁사건으로	-10.9322
▁넘겨	-10.9325
▁조사하고	-10.9325
▁변형	-10.9327
▁얻는	-10.9329
▁김포	-10.9329
▁시정	-10.9332
▁막는	-10.9332
▁확률	-10.9334
▁기소된	-10.9335
▁고양시	-10.9336
곳에	-10.9336
▁권한을	-10.9336
료를	-10.9337
▁탓	-10.9338
▁훌륭한	-10.9338
▁처음부터	-10.9339
▁회장을	-10.9339
▁든다	-10.9341
▁Co	-10.9341
성의	-10.9341
▁때문이라고	-10.9341
헬로비전	-10.9342
▁걸린	-10.9343
▁비롯	-10.9344
▁열릴	-10.9347
▁정신을	-10.9348
기념	-10.9348
▁보인다고	-10.9349
▁울트라	-10.935
▁이루	-10.935
▁근처	-10.9351
▁n	-10.9352
▁관할	-10.9356
▁응급실	-10.9357
▁취지	-10.9357
▁운항	-10.9358
▁예외	-10.9358
▁서울특별시	-10.9359
▁환자를	-10.9363
▁전차	-10.9364
▁현대자동차	-10.9366
▁입장이	-10.9366
▁긍정적	-10.937
ell	-10.9371
▁언급했다	-10.9371
▁결정할	-10.9374
팟	-10.9376
소설	-10.9377
▁요시	-10.9378
▁특화된	-10.9378
▁며칠	-10.9378
▁금융권	-10.9379
삼성전자	-10.9379
▁연구진은	-10.9381
▁편리한	-10.9382
▁적어	-10.9383
직원	-10.9386
미를	-10.9388
▁위험이	-10.939
▁연락	-10.9391
▁방송통신위원회	-10.9391
▁모험	-10.9391
▁위장	-10.9392
▁전달하고	-10.9394
▁산림	-10.9398
!"	-10.9398
답게	-10.9402
▁종류의	-10.9403
EC	-10.9404
메이	-10.9406
▁것인데	-10.9406
▁광장	-10.9408
속도	-10.9409
▁안보리	-10.941
▁지능형	-10.941
되어야	-10.941
렸습니다	-10.9413
▁☎	-10.9414
▁관측이	-10.9415
sis	-10.9415
어도	-10.9416
▁다양하게	-10.9416
▁체감	-10.9421
▁간에	-10.9423
▁뜻이	-10.9425
▁자신에게	-10.9427
▁떡	-10.9427
▁개관	-10.9428
▁개혁을	-10.9428
▁계획이	-10.9428
▁생길	-10.9428
코어	-10.943
앞으로	-10.9431
▁최고위	-10.9432
▁추가했다	-10.9432
지와	-10.9432
▁발병	-10.9433
▁흘	-10.9435
▁투쟁	-10.9436
▁시위	-10.9437
▁여부에	-10.9439
▁약정	-10.944
▁알리고	-10.9442
▁대리	-10.9442
▁말레이시아	-10.9444
▁비교하면	-10.9445
ive	-10.9446
▁전문기업	-10.9446
▁필터	-10.9447
회는	-10.9447
스토리	-10.9448
▁선포	-10.945
▁중복	-10.9451
해진다	-10.9451
▁커플	-10.9453
▁막대한	-10.9453
▁나라의	-10.9453
age	-10.9455
▁다채로운	-10.9456
▁실시했다	-10.9458
▁파악하고	-10.9459
▁보조금	-10.9459
▁+	-10.9459
▁정국	-10.946
▁애니	-10.946
▁태어나	-10.9462
유럽	-10.9465
▁담겨	-10.9469
▁DNA	-10.947
▁확성기	-10.947
▁불만을	-10.9471
빵	-10.9475
▁선생	-10.9475
▁구형	-10.9478
▁나옵니다	-10.9478
ow	-10.9479
▁대표적	-10.948
▁연설	-10.948
▁6000	-10.9484
포스	-10.9488
▁관행	-10.9489
상은	-10.9489
앞으로도	-10.9493
▁금융감독원	-10.9493
▁전격	-10.9495
어로	-10.9499
뱅크	-10.9499
렐	-10.9499
▁신축	-10.95
▁선정해	-10.95
리지	-10.95
▁제외하면	-10.95
91	-10.9501
▁범위를	-10.9502
매장	-10.9502
▁공동체	-10.9503
▁유치원	-10.9505
▁배재	-10.9509
민족	-10.951
▁제조업체	-10.951
▁바람이	-10.9512
▁조문	-10.9512
▁재발	-10.9512
▁조달	-10.9513
▁지목	-10.9515
▁짝	-10.9516
▁룰	-10.9518
▁증인	-10.9518
▁구축을	-10.952
▁의무화	-10.952
▁김수	-10.9521
럽	-10.9521
터를	-10.9522
▁지수	-10.9523
▁함정	-10.9523
법원	-10.9526
그러	-10.9528
▁나타난다	-10.9529
▁말도	-10.953
▁단위로	-10.9531
▁시작하는	-10.9532
면적	-10.9536
▁확보하고	-10.9537
▁구도	-10.9537
▁톱	-10.9539
▁썼	-10.9539
▁들어간다	-10.9541
▁허리	-10.9541
▁해병대	-10.9542
▁벌였다	-10.9545
▁탐사	-10.9548
▁인상을	-10.9548
▁섬유	-10.955
자유	-10.955
▁해주	-10.9551
▁병원으로	-10.9551
▁인쇄	-10.9551
▁벤처기업	-10.9554
▁지분을	-10.9555
▁승강장	-10.9556
▁꼽히는	-10.9556
▁막아	-10.9558
▁받아들여	-10.956
경북	-10.956
▁선두	-10.9561
hp	-10.9561
▁가끔	-10.9562
▁법인세	-10.9562
▁탑재된	-10.9564
시설을	-10.9566
▁이어가고	-10.9569
▁병력	-10.9569
▁지냈다	-10.9569
닐	-10.957
▁강조한	-10.957
▁스펙	-10.9571
▁생체	-10.9573
▁지형	-10.9574
곳을	-10.9575
▁회피	-10.9576
▁넘어가	-10.9577
▁프레	-10.9579
▁국정감사	-10.9581
▁고수	-10.9581
▁금강산	-10.9585
세는	-10.9586
▁정책에	-10.9587
▁강사	-10.9587
▁The	-10.9589
▁통치	-10.959
▁설명했습니다	-10.959
▁다니는	-10.9591
▁가격으로	-10.9591
상이	-10.9593
▁EU	-10.9596
▁간담회	-10.9597
▁꿀	-10.9597
▁형식으로	-10.9598
▁먹거리	-10.9599
철도	-10.96
▁그랬	-10.96
맥스	-10.9602
회가	-10.9604
봄	-10.9607
▁2.5	-10.9611
▁상품권	-10.9611
나요	-10.9614
▁전시장	-10.9614
▁주장하고	-10.9614
▁시작할	-10.9616
▁앉	-10.9617
즐	-10.9618
▁성폭행	-10.9619
▁월급	-10.9619
▁그만	-10.962
그룹은	-10.9628
▁틈	-10.9629
▁수급	-10.963
▁방한	-10.9632
▁드러냈다	-10.9632
▁지지율	-10.9633
만개	-10.9634
▁감축	-10.9635
▁야마	-10.9636
▁위원회	-10.9637
▁고위급	-10.9638
라스	-10.9639
▁시대가	-10.9641
점은	-10.9644
▁요소를	-10.9645
하느냐	-10.9645
▁되자	-10.9647
▁가족이	-10.9647
▁중요하다고	-10.9648
▁것들이	-10.9649
▁잡기	-10.965
▁사태를	-10.965
▁신발	-10.9652
▁대가	-10.9652
▁의미로	-10.9652
▁사용이	-10.9655
▁가문	-10.9656
▁선택한	-10.9657
▁유지할	-10.9659
▁88	-10.966
▁히어로즈	-10.9666
▁확인했다	-10.9666
▁출시될	-10.9666
▁공격력	-10.9667
▁이뤄지지	-10.9668
▁오해	-10.9669
▁1960	-10.9671
▁딜	-10.9672
▁조회	-10.9673
혁명	-10.9673
▁학계	-10.9676
▁유족	-10.9676
▁110	-10.9676
▁동남아	-10.9678
▁알림	-10.9679
▁국회가	-10.968
▁산정	-10.9681
▁참가해	-10.9683
커피	-10.9683
▁성립	-10.9684
▁당이	-10.9685
비서	-10.9686
▁견인	-10.9688
▁사이즈	-10.9689
켈	-10.969
▁환경부	-10.969
▁성사	-10.9692
SNS	-10.9694
디아	-10.9697
▁도구	-10.9698
브로드밴드	-10.9698
▁구동	-10.9702
지의	-10.9708
▁설치해	-10.971
회관에서	-10.971
TO	-10.971
▁지향	-10.9711
▁린	-10.9711
▁어찌	-10.9711
▁그저	-10.9711
▁의해서	-10.9715
▁담당자	-10.9715
▁시설을	-10.9716
▁첫번째	-10.9718
▁몸이	-10.9722
▁적정	-10.9724
▁실버	-10.9725
▁고시	-10.9727
▁청와대는	-10.9727
°	-10.9727
▁아니라는	-10.9729
▁논란에	-10.9731
▁담았다	-10.9732
호로	-10.9733
▁참여하고	-10.9733
수술	-10.9734
▁해주는	-10.9734
▁보며	-10.9734
▁d	-10.9735
▁상환	-10.9735
▁제품과	-10.9735
치가	-10.9739
▁낮다	-10.974
▁조항	-10.974
▁태평양	-10.9743
▁찍은	-10.9744
ey	-10.9745
▁중독	-10.9745
▁발생해	-10.9747
▁자동화	-10.9747
▁온라인게임	-10.9747
▁설립한	-10.9748
▁최다	-10.9748
▁돼지	-10.9748
▁사용하면	-10.9748
▁연다	-10.9749
▁중진	-10.9749
오스	-10.9752
▁개최한다	-10.9752
▁요금제를	-10.9754
▁서비스와	-10.9755
▁고지	-10.9755
특히	-10.9755
▁옛날	-10.9757
▁개최된	-10.9759
▁구미	-10.9759
▁참전	-10.976
▁알리	-10.9761
▁수능	-10.9764
mi	-10.9764
▁경기가	-10.9767
▁문명	-10.9767
청년	-10.9767
▁태극기	-10.9767
▁겨냥한	-10.9768
▁지니고	-10.9769
▁자랑하는	-10.9771
▁해커	-10.9773
핏	-10.9774
▁죽어	-10.9774
▁티켓	-10.9775
체가	-10.978
▁소비자의	-10.9781
▁채소	-10.9781
▁1993	-10.9782
▁해상도	-10.9782
▁추구하는	-10.9783
▁그에게	-10.9783
▁본부장은	-10.9784
▁좋을	-10.9785
스럽게	-10.9787
▁박스	-10.9789
▁평가다	-10.979
▁소폭	-10.9791
형으로	-10.9795
▁뮤	-10.9795
▁국제사회	-10.9797
▁부위	-10.9798
트가	-10.9799
▁투자가	-10.98
확인	-10.9804
▁하나다	-10.9806
▁발송	-10.9806
못	-10.9807
▁큐	-10.9808
▁통화에서	-10.9808
베르	-10.9809
센터는	-10.981
▁119	-10.9811
▁인원	-10.9811
▁1992	-10.9811
▁대국	-10.9812
▁무엇을	-10.9813
▁선사	-10.9815
▁애초	-10.9816
▁경유	-10.9816
▁공작	-10.9817
▁재건축	-10.9817
▁흔	-10.9817
▁중소형	-10.9817
▁고객들의	-10.9819
▁주한미군	-10.982
▁빵	-10.9823
▁후보와	-10.9824
▁때보다	-10.9827
▁임무를	-10.9829
▁저희가	-10.9829
스틱	-10.983
▁김대	-10.983
▁예비군	-10.9831
줬다	-10.9832
▁조세	-10.9832
잇	-10.9832
▁투명	-10.9832
▁일으킨	-10.9833
사실	-10.9834
▁정관용	-10.9837
SC	-10.9838
▁논쟁	-10.9839
▁거리가	-10.984
▁멤버십	-10.984
▁이루고	-10.9841
끝	-10.9842
▁동맹	-10.9843
▁메이플스토리	-10.9844
▁백승렬	-10.9845
▁기금	-10.9849
▁네팔	-10.9849
▁채무	-10.9849
공정	-10.985
▁번호	-10.9854
▁문화상품권	-10.9854
▁국가가	-10.9854
▁수술을	-10.9859
▁서울뉴시스전	-10.9861
▁선수가	-10.9864
▁배상	-10.9867
▁일본은	-10.9868
▁깜짝	-10.9868
▁투수	-10.9869
▁구성돼	-10.9869
▁있죠	-10.9873
▁목포	-10.9874
▁혹시	-10.9877
▁확보할	-10.9877
▁발표할	-10.9878
소비자	-10.9878
음에도	-10.9879
▁분들	-10.9879
짱	-10.9879
줘	-10.9879
▁때가	-10.9881
져서	-10.9884
▁고양이	-10.9884
▁자칫	-10.9885
로스	-10.9885
▁셰	-10.9886
▁단일화	-10.9888
▁똑같은	-10.9889
▁내야	-10.989
▁일명	-10.9891
넘	-10.9891
▁해외에서	-10.9892
▁진전	-10.9895
▁PS	-10.9895
▁스마트폰에	-10.9897
▁결과적으로	-10.9897
▁급격히	-10.9901
▁위해선	-10.9902
▁관심사	-10.9903
▁분야를	-10.9903
▁영향이	-10.9905
위성	-10.9908
층의	-10.9908
▁뮤직	-10.991
▁구성원	-10.9911
▁인프라를	-10.9911
▁크리스	-10.9911
▁유인	-10.9912
에서만	-10.9912
뒤	-10.9913
▁날아	-10.9914
프트	-10.9916
센서	-10.9916
▁콘셉트	-10.9916
▁인용	-10.9917
▁군수	-10.9917
작업을	-10.9917
▁프로모션을	-10.9917
▁돼야	-10.9923
▁행복한	-10.9924
▁갈라	-10.9925
▁그들이	-10.9927
▁지적이다	-10.9928
나노	-10.9928
▁행사에는	-10.9929
▁브랜드를	-10.993
▁기후	-10.9933
버그	-10.9933
플래닛	-10.9935
▁김한길	-10.9936
▁상영	-10.9952
MOU	-10.9955
▁이용자의	-10.9956
▁요구하고	-10.9956
▁박영	-10.9957
전은	-10.9957
▁보도에	-10.9957
▁인식을	-10.9959
▁사망자	-10.9959
▁맺	-10.996
자들	-10.9961
▁황사	-10.9962
▁0.5	-10.9963
▁이어진	-10.9964
▁보니까	-10.9964
ry	-10.9965
oo	-10.9965
▁나란히	-10.9965
▁마시	-10.9968
▁채워	-10.997
▁걸리	-10.9971
렸던	-10.9971
클라우드	-10.9972
소에서	-10.9972
났다	-10.9972
▁MOU	-10.9975
▁벌써	-10.9977
이어	-10.9977
영업	-10.9978
AC	-10.9978
▁주민들의	-10.9979
▁없던	-10.9979
▁밝혀졌다	-10.998
▁카카오는	-10.998
샘	-10.9982
▁클릭	-10.9982
하되	-10.9983
▁안정성	-10.9985
▁경쟁사	-10.9986
텔레콤의	-10.9986
▁잊	-10.9986
▁꾸준한	-10.9986
▁아무래도	-10.9989
▁화상	-10.999
▁상승한	-10.9991
▁꼴	-10.9991
▁놓은	-10.9992
▁무죄	-10.9993
▁아일랜드	-10.9995
하이닉스	-10.9995
에겐	-10.9996
▁이모	-10.9996
▁해양수산부	-10.9997
de	-10.9999
▁업체들이	-10.9999
그라	-11.0001
▁준비하는	-11.0002
▁불을	-11.0003
▁비판이	-11.0003
▁광주시	-11.0005
뮤직	-11.0008
▁교육감	-11.0009
▁해결하기	-11.0011
되었던	-11.0012
▁진성철	-11.0012
▁모터	-11.0014
▁분양가	-11.0014
▁집중적으로	-11.0015
▁벌이는	-11.0018
▁선거에서	-11.0018
▁쾌	-11.002
▁기록하고	-11.0021
▁고려대	-11.0022
▁사건은	-11.0023
▁재고	-11.0023
▁추경	-11.0024
▁소요	-11.0025
▁공천을	-11.0028
▁원료	-11.0031
▁합의했다	-11.0032
▁밖에도	-11.0032
▁압력	-11.0032
허가	-11.0033
▁화장실	-11.0037
▁트랙	-11.0038
▁국적	-11.0039
▁자택	-11.0039
▁1200	-11.0039
▁끝나	-11.0041
▁실수	-11.0041
▁점수를	-11.0041
케어	-11.0042
▁이외에	-11.0043
▁태도를	-11.0043
▁연인	-11.0046
▁68	-11.0047
▁가능하도록	-11.0048
▁탑재했다	-11.0048
▁신분	-11.0049
▁손실	-11.0049
팜	-11.005
▁업무협약	-11.0053
▁추출	-11.0053
▁빠르고	-11.0055
▁강세	-11.0059
▁커질	-11.0059
▁월세	-11.0061
×	-11.0062
▁다음에	-11.0063
감사	-11.0063
▁치료제	-11.0063
▁치매	-11.0063
분기에	-11.0066
녹	-11.0068
▁인간이	-11.0071
▁구입할	-11.0071
▁느	-11.0074
▁메가	-11.0075
▁파주	-11.0075
▁발열	-11.0076
▁악마	-11.0078
▁사거리	-11.0079
오브	-11.0081
체계를	-11.0082
▁연구에	-11.0083
▁잃은	-11.0083
수요	-11.0085
였으나	-11.0085
▁확보를	-11.0086
주식	-11.0087
▁탑재해	-11.0088
▁하위	-11.0093
▁충청	-11.0094
▁인사청문회	-11.0094
▁한국형	-11.0097
▁회원들이	-11.0098
TI	-11.0104
▁앞선	-11.0107
▁청주시	-11.0108
▁이벤트에	-11.0109
▁자랑한다	-11.0109
▁영하	-11.0111
▁세계적	-11.0111
▁자치	-11.0112
▁사업장	-11.0113
아트	-11.0114
▁영등포구	-11.0119
사용	-11.012
▁하겠습니다	-11.0123
▁움직임	-11.0123
됐을	-11.0125
▁있으므로	-11.0126
▁수송	-11.0126
▁촬영한	-11.0126
▁물이	-11.0128
▁삼국지	-11.0129
버렸다	-11.013
▁구조조정	-11.0132
▁수혜	-11.0132
재정	-11.0133
▁없으면	-11.0133
▁유지하는	-11.0134
▁정보와	-11.0134
▁영토	-11.0134
▁병사	-11.0136
▁채널을	-11.0136
정이	-11.0138
▁면담	-11.0139
▁창원시	-11.014
점검	-11.014
▁조사에	-11.0143
▁보내고	-11.0145
▁1988	-11.0145
▁논의할	-11.0148
▁확보했다	-11.015
▁기자간담회를	-11.015
▁환자와	-11.0151
▁견해	-11.0151
▁프로야구	-11.0153
한다며	-11.0153
▁인터뷰를	-11.0157
▁가르	-11.0159
▁상권	-11.016
▁베이스	-11.016
▁모르	-11.0161
행동	-11.0162
▁h	-11.0164
·4	-11.0167
군과	-11.0167
공개	-11.0167
▁원내	-11.0172
▁김일성	-11.0172
▁방안도	-11.0172
요소	-11.0172
▁연평균	-11.0173
▁표결	-11.0177
계획을	-11.0179
▁즐거운	-11.0181
▁140	-11.0181
국이	-11.0185
▁공직자	-11.0187
▁의료기관	-11.0187
▁침입	-11.0188
▁관리하는	-11.0189
▁언론에	-11.019
▁폴리	-11.0192
SA	-11.0192
▁불린다	-11.0194
회의를	-11.0194
▁남기	-11.0195
▁대회에서	-11.0196
▁대항	-11.0198
▁식민지	-11.0198
▁필리버스터	-11.0199
▁웅	-11.0199
05	-11.0201
▁불어	-11.0202
▁세계를	-11.0203
▁가족과	-11.0204
▁붐	-11.0204
▁열정	-11.0204
위원회를	-11.0205
ap	-11.0206
▁담보	-11.0207
▁세탁	-11.0207
▁위상	-11.0207
▁걸친	-11.0207
팀은	-11.0208
▁공개할	-11.0208
▁벌인	-11.0209
▁이벤트와	-11.0209
▁흘러	-11.0211
▁굳	-11.0214
▁하락한	-11.0215
▁올릴	-11.0216
었을	-11.0217
▁표정	-11.0217
▁감염된	-11.0217
▁재편	-11.0219
▁준비했다	-11.0219
▁만나볼	-11.0223
인은	-11.0224
▁대형마트	-11.0225
▁사회에	-11.0226
▁고양	-11.0228
▁부자	-11.0228
▁신기술	-11.0228
▁나서는	-11.023
▁주최로	-11.023
회관	-11.0231
▁기지국	-11.0232
be	-11.0233
▁아카데미	-11.0234
탐	-11.0235
▁정보는	-11.0236
▁해산	-11.0237
보장	-11.0238
oe	-11.0239
▁암호화	-11.0239
▁이곳에서	-11.0239
▁건강을	-11.0241
▁상임위	-11.0242
▁발탁	-11.0247
쇠	-11.0248
▁판단했다	-11.0249
▁요구에	-11.025
▁일도	-11.025
시장에	-11.0251
위원회는	-11.0255
▁전쟁을	-11.0255
▁옹	-11.0257
▁샌프란시스코	-11.0261
▁CD	-11.0262
▁넣	-11.0262
군수	-11.0263
▁변환	-11.0263
▁래	-11.0263
▁잠정	-11.0264
▁오찬	-11.0264
▁생태계를	-11.0267
지디넷코리아	-11.0268
▁당사자	-11.0269
시간을	-11.0269
▁달린	-11.0269
▁넣고	-11.0271
경찰서는	-11.0271
▁흑자	-11.0274
▁경향이	-11.0274
위원회가	-11.0274
▁작업이	-11.0275
▁달아	-11.0275
관계를	-11.0276
▁영화를	-11.0277
▁하다가	-11.0278
▁수렴	-11.0281
▁공지	-11.0282
▁엑스	-11.0282
TP	-11.0282
st	-11.0283
▁범인	-11.0284
▁장면이	-11.0285
▁아군	-11.0286
▁어렵게	-11.0287
▁생겼다	-11.0287
▁김상	-11.0288
▁성능이	-11.0289
이었으나	-11.0289
당시	-11.0289
▁경제가	-11.029
애플	-11.029
▁보여준	-11.0292
▁vs	-11.0293
▁캐릭터가	-11.0294
▁한국이	-11.0294
▁확실한	-11.0295
자들을	-11.0298
▁들려	-11.0299
▁○	-11.0299
대장	-11.03
▁수상자	-11.0301
▁기증	-11.0301
▁판타지	-11.0306
▁직접적인	-11.0306
▁경품	-11.0307
번지	-11.0309
▁거치	-11.0309
▁이해할	-11.031
▁불가능하다	-11.031
▁본질	-11.031
무라	-11.0311
▁전원에게	-11.0311
▁언제나	-11.0311
▁참석하고	-11.0313
생활을	-11.0313
▁0.1	-11.0315
▁농산물	-11.0316
▁도내	-11.0317
▁노래를	-11.032
▁장점	-11.032
▁발견됐다	-11.0324
lo	-11.0326
리얼	-11.0328
▁대국민	-11.0331
▁종로	-11.0332
까지도	-11.0335
친다	-11.0337
▁수치다	-11.0338
▁개발된	-11.034
▁모인	-11.0341
▁레스토랑	-11.0342
▁트레	-11.0342
적이다	-11.0344
주로	-11.0348
▁근대	-11.0348
▁선언했다	-11.035
인천	-11.035
▁궤도	-11.0355
▁구성된다	-11.0355
▁대응을	-11.0357
▁당을	-11.0358
▁땀	-11.0358
▁아우	-11.0358
카이	-11.0359
▁작곡	-11.036
▁장면을	-11.036
▁3.3	-11.0361
▁창설	-11.0362
▁내려가	-11.0362
▁축적	-11.0363
▁출시한다	-11.0367
▁플라	-11.0367
▁연계해	-11.0369
▁기분	-11.0369
▁경우에도	-11.037
▁영혼	-11.0373
▁감안해	-11.0376
▁실종	-11.0376
듬	-11.0377
▁카이	-11.0378
구의	-11.0378
▁화질	-11.0381
드림	-11.0382
▁자라	-11.0383
▁교정	-11.0384
▁다음카카오	-11.0384
▁포함됐다	-11.0384
가치	-11.0384
▁성매매	-11.0387
▁어워드	-11.0387
▁문제점	-11.039
▁정성	-11.039
▁모양의	-11.0392
▁다음날	-11.0392
버리는	-11.0394
씨에게	-11.0395
나가는	-11.0396
▁아키	-11.0396
골을	-11.0398
데스	-11.04
되지만	-11.0402
▁인지도	-11.0405
ard	-11.0405
▁출생	-11.0407
▁자리매김	-11.0407
▁62	-11.0408
NG	-11.0412
▁쇠	-11.0412
▁배신	-11.0418
▁종전	-11.0419
▁빌려	-11.042
▁가리	-11.0423
▁이용하여	-11.0424
피스	-11.0424
톱	-11.0425
▁두루	-11.0426
▁등장했다	-11.0427
▁편의성을	-11.0427
▁힐	-11.043
▁헌법재판소	-11.043
장애인	-11.043
질을	-11.0431
▁체계를	-11.0433
산업의	-11.0433
▁눈물을	-11.0434
▁나타나고	-11.0434
it	-11.0435
협정	-11.0436
▁전체회의	-11.0437
▁벗	-11.0437
▁추진해	-11.0437
모임	-11.0437
단위	-11.0437
▁필요로	-11.0437
▁내비게이션	-11.044
▁양당	-11.0441
▁멜	-11.0443
▁3.5	-11.0443
▁치유	-11.0444
▁이르기까지	-11.0444
중이다	-11.0444
▁실전	-11.0444
신을	-11.0445
▁신종	-11.0445
▁커다란	-11.0446
▁효율적으로	-11.0448
텍스	-11.0449
▁마음으로	-11.0449
▁근거로	-11.0449
▁토요일	-11.045
▁시상식	-11.0451
▁74	-11.0452
▁성적을	-11.0452
▁규탄	-11.0454
▁USB	-11.0455
▁외식	-11.0456
▁점유율을	-11.0456
▁트럼프	-11.0457
졌고	-11.0463
▁방북	-11.0464
▁일어나는	-11.0465
▁장악	-11.0465
병을	-11.0465
▁돕기	-11.0466
1006	-11.0467
앞	-11.0468
▁기사는	-11.0469
▁김모	-11.0471
▁천안함	-11.0471
▁해설	-11.0471
▁협정	-11.0474
▁이루어진	-11.0476
▁르	-11.0476
▁바른	-11.0477
업자	-11.0479
마당	-11.0479
▁화제를	-11.048
▁싸우	-11.048
▁급등	-11.048
▁먼지	-11.0481
▁결합한	-11.0483
MERS	-11.0484
▁국토부	-11.0491
요원	-11.0494
▁한계를	-11.0494
했었다	-11.0496
▁자꾸	-11.0496
▁추격	-11.0497
▁사용하기	-11.0498
▁제외하고	-11.05
▁선물을	-11.0502
▁운송	-11.0503
▁첫날	-11.0504
▁선별	-11.0504
▁여행을	-11.0505
▁알리바바	-11.0505
▁수상한	-11.0506
▁고생	-11.0507
DI	-11.0509
▁76	-11.0509
▁종족	-11.0509
떡	-11.0511
▁이루어져	-11.0511
실적	-11.0512
보상	-11.0513
절차	-11.0513
▁화가	-11.0515
멜	-11.0515
▁포스	-11.052
셋	-11.052
▁놀라	-11.052
▁무엇이	-11.0521
▁읽어	-11.0521
▁1991	-11.0522
▁유명하다	-11.0522
물로	-11.0524
▁다짐	-11.0524
▁작품이	-11.0524
돔	-11.0524
▁촉구하는	-11.0524
▁김치	-11.0524
2014	-11.0526
▁실질적으로	-11.0527
보수	-11.0528
지검	-11.0529
잘	-11.053
▁연세대	-11.0532
부담	-11.0533
▁푸른	-11.0535
▁발간	-11.0535
▁학대	-11.0536
▁과거에	-11.0539
▁내부에서	-11.054
▁왕국	-11.0543
▁시뮬레이션	-11.0544
▁디젤	-11.0544
▁봐	-11.0546
지역에	-11.0546
▁경찰청	-11.0546
꾸	-11.0547
▁상자	-11.0547
▁민주노총	-11.0549
▁책임자	-11.0549
▁벚꽃	-11.0549
▁민주화	-11.0552
단에	-11.0552
▁혜택이	-11.0553
▁수여	-11.0554
▁흰	-11.0554
쓸	-11.0556
자마자	-11.0558
▁확신	-11.0558
공유	-11.0564
▁흡연	-11.0564
▁초래	-11.0564
만원이다	-11.0567
▁출신인	-11.0568
농협	-11.0568
AN	-11.0568
▁시점에	-11.0569
▁서대문구	-11.0569
플렉스	-11.057
▁온갖	-11.0573
패스	-11.0573
▁못했던	-11.0574
▁안정적으로	-11.0575
▁인형	-11.0575
▁대개	-11.0575
▁문화재	-11.0577
▁치킨	-11.0578
보이	-11.0579
▁스킨	-11.0581
▁상대방	-11.0581
▁도입해	-11.0581
옹	-11.0581
▁팀의	-11.0584
▁넘어섰다	-11.0584
▁오리	-11.0585
붙	-11.0585
▁정해진	-11.0585
sa	-11.0586
▁총재	-11.0586
▁공통	-11.0588
만명이	-11.0593
▁홈쇼핑	-11.0593
▁그렇기	-11.0595
통을	-11.0596
▁본부	-11.0599
▁방송사	-11.0599
종으로	-11.0599
▁추산	-11.06
▁게임과	-11.0601
▁끈다	-11.0601
▁어두운	-11.0603
▁생각했다	-11.0604
▁인물이	-11.0605
▁조언했다	-11.0605
일현지시각	-11.0605
자들에게	-11.0607
▁판결을	-11.0607
색이	-11.061
▁움직임이	-11.0611
보다도	-11.0612
po	-11.0613
▁전통적인	-11.0613
원인	-11.0613
▁꼬리	-11.0613
소비	-11.0614
▁찾지	-11.0614
▁오래된	-11.0617
▁듣	-11.0617
▁크기의	-11.0617
▁인력을	-11.0618
▁공룡	-11.0621
▁공유하는	-11.0623
▁마련할	-11.0623
▁버튼을	-11.0623
▁순차적으로	-11.0623
▁개최한	-11.0624
▁지능	-11.0625
▁선언한	-11.0626
▁전반적인	-11.0627
▁한창	-11.0627
▁어쩔	-11.0627
▁거래를	-11.0628
벅	-11.0629
▁상담을	-11.0629
▁정청래	-11.063
▁극장	-11.0631
나눔	-11.0632
▁전통시장	-11.0633
▁쳐	-11.0633
▁주목받고	-11.0635
im	-11.0635
▁판정	-11.0636
▁지키는	-11.0637
▁보낼	-11.0638
am	-11.0638
▁중남미	-11.0639
▁음식점	-11.0639
▁경찰관	-11.064
_1	-11.064
▁생각한다고	-11.0641
선택	-11.0641
▁생일	-11.0642
▁막판	-11.0642
▁대중교통	-11.0643
▁문제의	-11.0644
▁현직	-11.0645
▁생산성	-11.0645
롯데	-11.0645
▁출동	-11.0646
▁모래	-11.0647
▁많은데	-11.0648
▁실력을	-11.065
▁선택해	-11.065
▁인식이	-11.065
▁습격	-11.0651
▁후기	-11.0652
위권	-11.0653
▁남겨	-11.0654
▁관심과	-11.0655
▁붙잡	-11.0656
▁갚	-11.0658
▁가능성에	-11.0663
▁사실이다	-11.0667
▁일행	-11.0668
▁카테고리	-11.0669
▁실장	-11.067
▁신고를	-11.067
▁평범한	-11.0671
▁자체는	-11.0673
▁청사	-11.0673
블록	-11.0673
스토어	-11.0674
곳이	-11.0674
IN	-11.0678
박근혜	-11.0678
▁경영진	-11.0679
▁이수	-11.0679
하지는	-11.0682
▁받았다고	-11.0683
▁보여주	-11.0683
▁사랑의	-11.0685
▁염두에	-11.0686
▁줬다	-11.0686
▁인터	-11.0686
밸리	-11.0686
▁정책위의장	-11.0687
▁여사	-11.0687
지난해	-11.0688
▁4·13	-11.0688
스럽다	-11.0689
엣지	-11.069
▁거예요	-11.0691
▁마포	-11.0692
었으나	-11.0692
▁몬	-11.0693
▁주었다	-11.0693
보를	-11.0698
▁골라	-11.0699
▁마침내	-11.07
극장	-11.07
냥	-11.07
▁위생	-11.0701
▁기원전	-11.0701
▁통하여	-11.0701
▁대응할	-11.0702
싸움	-11.0703
▁기프트카드	-11.0703
▁무산	-11.0704
들과의	-11.0705
▁우리은행	-11.0709
▁사망한	-11.0709
▁잡는	-11.0711
부품	-11.0711
▁원형	-11.0712
살이	-11.0713
▁명단	-11.0715
▁원천	-11.0716
▁소지	-11.0716
▁내릴	-11.0718
▁에너지를	-11.0718
▁술을	-11.072
▁생각에	-11.0721
었	-11.0721
▁아웃도어	-11.0721
▁송금	-11.0722
▁출고가	-11.0722
전자의	-11.0724
▁도움	-11.0724
▁픽	-11.0725
해달라고	-11.0726
▁동쪽	-11.0726
▁생겨	-11.0729
▁출현	-11.073
▁체육	-11.073
▁구체적	-11.0731
▁팀장	-11.0731
▁멋	-11.0733
▁하루에	-11.0733
▁구제역	-11.0737
▁비슷	-11.074
▁원내대표의	-11.0741
un	-11.0741
▁여신	-11.0742
▁준비해	-11.0742
ea	-11.0743
동물	-11.0744
▁아나운서	-11.0748
▁공직	-11.0749
▁명분	-11.075
ge	-11.075
▁반박	-11.0752
▁김승	-11.0753
▁취약점	-11.0753
▁이어져	-11.0756
▁바디	-11.0757
▁소재를	-11.0757
▁특별히	-11.0757
▁퍼즐	-11.0757
친구	-11.0758
▁컨트롤	-11.0758
▁퇴직	-11.0758
▁달성했다	-11.076
▁이내에	-11.0762
▁도모	-11.0763
▁활발한	-11.0765
▁앞세워	-11.0766
▁교육청	-11.0766
▁아스	-11.0767
▁합의한	-11.0768
▁총장은	-11.0768
▁전략이다	-11.0768
▁초청해	-11.077
▁바뀌었다	-11.0771
▁160	-11.0772
▁탄소	-11.0772
망이	-11.0772
즈는	-11.0773
▁각각의	-11.0773
▁둘러	-11.0774
딸	-11.0774
▁팀장은	-11.0775
▁개발하는	-11.0776
▁선배	-11.0777
▁돌아온	-11.0777
▁다루	-11.0779
▁이영	-11.078
▁요구한	-11.078
▁학생들에게	-11.0781
▁활동이	-11.0784
셰	-11.0786
▁양해각서	-11.0789
▁경제를	-11.079
전환	-11.079
▁길게	-11.0791
▁게재	-11.0792
▁답하고	-11.0792
▁66	-11.0793
▁발생한다	-11.0797
▁그날	-11.0797
년형	-11.0802
▁두산	-11.0803
▁우리나라는	-11.0803
전투	-11.0804
SDS	-11.0804
▁갈아	-11.0808
▁수사에	-11.0808
▁백수오	-11.0808
▁방안이	-11.0808
▁나은	-11.0809
▁중국에	-11.0809
▁삶	-11.081
팀을	-11.0811
▁원내수석부대표	-11.0811
▁포인트는	-11.0812
중에	-11.0813
▁다음은	-11.0814
▁점검하고	-11.0815
월말	-11.0815
▁상용	-11.0818
넌	-11.0818
▁수익성	-11.0819
▁개조	-11.082
▁각성	-11.082
과학기술	-11.0823
▁불가능한	-11.0825
▁수신	-11.0825
로드	-11.0826
▁과기정통부	-11.0827
▁미치지	-11.0828
▁상의	-11.083
▁이민	-11.083
▁그림을	-11.0832
▁판단을	-11.0832
▁거리에	-11.0832
▁나면	-11.0834
▁공유하고	-11.0835
▁보증	-11.0836
▁회의에	-11.0836
▁무단	-11.0837
▁빨	-11.0839
리의	-11.0839
▁사법	-11.084
작업	-11.0841
▁있느냐	-11.0841
▁명령을	-11.0842
▁줄이	-11.0842
▁금품	-11.0843
▁컸다	-11.0844
▁채팅	-11.0844
▁개발과	-11.0845
▁영구	-11.0846
▁웃음	-11.0846
▁한동안	-11.0847
▁입자	-11.0847
▁기준금리	-11.0847
기만	-11.0847
구청장	-11.0848
▁신한은행	-11.085
▁내놓았다	-11.0851
▁테이블	-11.0852
▁일본이	-11.0853
▁뭘	-11.0856
▁양보	-11.0857
▁고성	-11.0857
들이다	-11.086
▁무릎	-11.0861
즈의	-11.0862
▁신선	-11.0863
▁캔	-11.0866
제의	-11.0867
▁매치	-11.0868
▁워치	-11.0872
▁학문	-11.0873
냐고	-11.0874
▁기준이	-11.0874
▁다루는	-11.0874
▁떠오른	-11.0875
▁부천	-11.0875
의료원	-11.0878
▁알바	-11.088
▁캘리포니아	-11.0881
▁SUV	-11.0881
▁중이라고	-11.0881
▁노력할	-11.0881
ace	-11.0883
▁동서	-11.0886
▁수소	-11.0889
▁팔아	-11.0891
▁인터페이스	-11.0892
▁텔레비전	-11.0894
▁몰래	-11.0895
▁높	-11.0897
▁팝	-11.0898
▁출연해	-11.0898
▁비자금	-11.0898
▁위촉	-11.0899
넥스	-11.0899
▁고교	-11.0899
방위	-11.0901
▁쌓아	-11.0901
▁굿	-11.0903
신의	-11.0905
▁도박	-11.0908
하듯	-11.0908
▁기능성	-11.0909
호의	-11.0912
▁하니	-11.0912
▁예금	-11.0912
▁무시	-11.0914
어스	-11.0915
▁멤버들	-11.0915
▁모형	-11.0915
▁61	-11.0916
▁기능과	-11.0916
▁학생들은	-11.0917
▁학술	-11.0918
▁지뢰	-11.0918
▁걸음	-11.0919
▁정상회의	-11.092
▁택배	-11.0923
▁도입한	-11.0923
▁나도	-11.0924
▁아닐	-11.0925
집행	-11.0925
CO	-11.0925
▁시선	-11.0925
▁속속	-11.0926
▁전반적으로	-11.0929
▁청산	-11.093
전력	-11.093
▁습관	-11.0931
파이어	-11.0934
바다	-11.0937
▁효과적인	-11.0939
▁판매량이	-11.094
▁아들이	-11.0942
▁알파	-11.0942
분간	-11.0944
▁송도	-11.0945
▁단행	-11.0947
누리	-11.0947
▁턴	-11.0947
▁하나이다	-11.0949
▁모르겠다	-11.0949
▁기동	-11.0951
▁무력	-11.0954
▁지키고	-11.0954
▁결의안	-11.0955
실로	-11.0957
▁재선	-11.0957
▁3.0	-11.0958
▁엘리엇	-11.0961
▁신성	-11.0962
중소기업	-11.0964
▁갖추	-11.0966
▁서쪽	-11.0967
▁뜻하는	-11.0967
▁속으로	-11.0967
ill	-11.0967
▁제안한	-11.0969
인간	-11.097
▁가속	-11.0972
했는데요	-11.0972
▁와이	-11.0973
▁캐주얼	-11.0974
▁데이터센터	-11.0975
▁자료에	-11.0976
떼	-11.0976
▁액세서리	-11.0977
▁어려움	-11.0977
합의	-11.0977
진단	-11.0978
세에	-11.098
▁부드러운	-11.0981
▁주변의	-11.0983
▁이어지	-11.0984
▁영광	-11.0985
버전	-11.0985
▁둔화	-11.0986
▁업계에서는	-11.0987
▁지키	-11.0987
▁쓴다	-11.0987
▁택	-11.0988
▁날개	-11.0988
▁마련하고	-11.0991
▁EM	-11.0992
▁국토	-11.0993
▁경남도	-11.0993
▁중요성을	-11.0994
▁생산하는	-11.0997
▁생중계	-11.0997
식은	-11.0998
▁정론관에서	-11.0998
자에	-11.1
숲	-11.1
▁변수	-11.1002
▁번에	-11.1004
▁여파로	-11.1004
사령관	-11.1005
인프라	-11.1006
▁불만	-11.1007
블루	-11.1007
드의	-11.1009
▁진동	-11.101
PA	-11.1012
▁여섯	-11.1012
▁구별	-11.1012
교육감	-11.1013
▁손해배상	-11.1013
ON	-11.1013
트위터페이스북카카오스토리유튜브	-11.1014
▁시세	-11.1015
아리	-11.1015
▁제기되고	-11.1016
시장의	-11.1016
사무	-11.1016
▁유효	-11.102
▁물러나	-11.1023
곳의	-11.1024
▁수준인	-11.1027
▁내놓고	-11.1028
▁사무장	-11.103
▁FIFA	-11.1031
▁들면	-11.1031
▁서울역	-11.1031
▁위험한	-11.1032
▁턱	-11.1032
▁서비스도	-11.1032
▁성격이	-11.1033
▁보강	-11.1034
▁데려	-11.1035
사들이	-11.1035
▁선보여	-11.1036
▁프로그램은	-11.1039
▁차트	-11.1041
▁못하면	-11.1041
▁발을	-11.1042
▁말하면	-11.1043
겠	-11.1045
로우	-11.1045
▁부딪	-11.1045
▁홈페이지에서	-11.1046
▁그레이	-11.1047
뜻	-11.1049
▁봤을	-11.1051
▁프로그램이	-11.1051
▁곳곳에서	-11.1052
▁상공	-11.1053
▁근본적인	-11.1053
▁태어났다	-11.1054
▁발생하지	-11.1054
▁기간을	-11.1055
▁뛰	-11.1056
텔레콤과	-11.1057
▁제안을	-11.1057
▁않	-11.1058
▁원내대표와	-11.1059
▁적도	-11.1059
▁서초동	-11.106
▁계단	-11.106
▁살펴보	-11.106
▁역할이	-11.1063
▁단장	-11.1065
▁객	-11.1065
▁민감한	-11.1065
▁불신	-11.1069
▁이뤄지는	-11.1071
보고서	-11.1071
▁일대에서	-11.1071
▁1987	-11.1072
▁지문	-11.1072
▁만나는	-11.1074
▁대용량	-11.1075
▁w	-11.1076
벤처	-11.1076
▁아이콘	-11.1077
▁환경이	-11.1079
커스	-11.1079
콩	-11.1079
포트	-11.1079
▁신기	-11.108
▁정부에서	-11.1083
▁김해	-11.1084
▁바라는	-11.1085
▁시스템은	-11.1085
▁드라이브	-11.1087
▁새정치민주연합은	-11.1087
오리	-11.1088
ai	-11.1089
▁상처를	-11.109
썸	-11.1091
▁충성	-11.1091
▁거둔	-11.1092
가칭	-11.1095
▁일으키	-11.1095
▁스페이스	-11.1101
▁간호사	-11.1104
꺼	-11.1107
▁노력하겠다	-11.1107
▁그래	-11.1109
▁최대의	-11.111
▁플랫폼으로	-11.111
▁결승	-11.1112
▁확산을	-11.1113
트의	-11.1117
▁화합	-11.1118
FC	-11.112
BA	-11.1121
fomos	-11.1123
▁민중	-11.1123
정권	-11.1123
권에	-11.1124
집을	-11.1124
▁조직을	-11.1124
▁강경	-11.1126
제어	-11.1132
▁감독이	-11.1135
승을	-11.1136
▁제기한	-11.1137
▁동행	-11.1139
▁물가	-11.114
▁스마일게이트	-11.114
▁정책이	-11.114
▁법을	-11.1144
▁상륙	-11.1145
▁선착순	-11.1146
▁선거를	-11.1147
▁프로그램이다	-11.1149
di	-11.1149
▁성장세를	-11.115
▁타격을	-11.1151
▁금융사	-11.1152
▁건축물	-11.1154
▁놈	-11.1154
▁쉽다	-11.1155
▁남겼다	-11.1158
▁뜻한다	-11.1158
▁수시로	-11.116
▁물리적	-11.116
▁문제점을	-11.1161
▁렌	-11.1162
▁제기됐다	-11.1163
랭	-11.1164
국을	-11.1164
▁글자	-11.1165
▁리뷰	-11.1168
▁변동	-11.1168
▁다음으로	-11.1169
▁중이며	-11.1169
된다는	-11.1171
▁기자간담회에서	-11.1172
▁청와대가	-11.1172
ml	-11.1172
▁기술이다	-11.1173
▁날짜	-11.1173
▁닥터	-11.1173
진영	-11.1174
▁승무원	-11.1174
▁질의	-11.1176
▁질병관리본부	-11.1177
사업본부	-11.1178
텀	-11.1178
▁어려움이	-11.1178
▁경제의	-11.1179
LA	-11.118
▁일요일	-11.118
▁즐기	-11.118
▁갔	-11.1181
▁체중	-11.1182
▁UN	-11.1182
▁OSEN	-11.1185
▁확대에	-11.1186
작가	-11.1187
▁발주	-11.1187
▁다운	-11.1189
폴리	-11.1189
▁주문했다	-11.1189
▁사용된다	-11.119
▁제품군	-11.119
네이버	-11.1192
▁오스트리아	-11.1192
▁올리	-11.1193
∼1	-11.1193
▁이뤄진다	-11.1194
CI	-11.1194
베리	-11.1194
US	-11.1195
방문	-11.1197
▁트럭	-11.1197
▁보고서를	-11.1202
▁듣는	-11.1202
▁우리에게	-11.1202
RPG	-11.1203
▁노력하고	-11.1203
▁모범	-11.1205
지법	-11.1207
▁좋고	-11.1207
▁쿨	-11.1207
▁혹	-11.1213
왜	-11.1214
쌀	-11.1214
▁이병	-11.1216
▁일고	-11.1217
▁후에도	-11.1219
▁이한구	-11.1219
▁포즈를	-11.1219
▁해마다	-11.1222
얀	-11.1223
▁수차례	-11.1226
▁웨이	-11.1226
켓	-11.1227
▁항공사	-11.1227
▁헤드	-11.1228
▁좀더	-11.1229
▁중도	-11.123
▁특징을	-11.123
▁닿	-11.123
▁날이	-11.1231
▁처지	-11.1231
▁안동	-11.1233
▁농장	-11.1233
▁패밀리	-11.1234
▁나왔습니다	-11.1235
▁국군	-11.1235
▁뛰어나	-11.1237
▁이정훈	-11.1239
▁부하	-11.124
▁롯데그룹	-11.1242
행사를	-11.1243
▁증상을	-11.1244
▁박상	-11.1247
▁이라크	-11.1247
▁선거운동	-11.1247
▁알파고	-11.1247
0%	-11.1248
▁기온이	-11.1248
BS	-11.1249
▁짓는	-11.125
▁줄이기	-11.1252
▁경험할	-11.1253
▁모습은	-11.1254
▁머물	-11.1254
공천	-11.1257
▁갖는다	-11.126
▁170	-11.1262
SI	-11.1262
▁챙겨	-11.1262
▁효율적인	-11.1263
하에	-11.1263
▁계급	-11.1264
▁신속하게	-11.1265
▁암살	-11.1266
▁비전을	-11.1267
▁없애	-11.1269
▁알고리즘	-11.1269
▁있고요	-11.127
▁있었기	-11.1273
군요	-11.1273
iy	-11.1273
mo	-11.1276
▁기업들은	-11.1276
▁만났다	-11.1276
▁한전	-11.1276
드가	-11.1277
하였는데	-11.1277
▁전국의	-11.1278
▁야생	-11.1279
▁국방부는	-11.1279
▁뉴스를	-11.1284
▁납치	-11.1287
▁가능하게	-11.1288
▁역사상	-11.1288
이즈	-11.1288
▁전자상거래	-11.1291
▁뜻으로	-11.1292
▁관계없이	-11.1292
색을	-11.1293
▁사용했다	-11.1293
▁무엇인지	-11.1293
구매	-11.1294
▁있었으며	-11.1296
팡	-11.1297
▁인체	-11.1297
▁링	-11.1299
▁기도	-11.1301
▁올해도	-11.1304
▁저금리	-11.1304
▁베르	-11.1304
▁방식은	-11.1304
▁컨소시엄	-11.1306
겠다며	-11.1307
▁행보	-11.1309
▁당시에는	-11.1311
권의	-11.1312
▁시선을	-11.1314
▁모금	-11.1316
▁주자	-11.1317
▁작가의	-11.1317
▁나타내는	-11.1319
▁진학	-11.1319
▁타이어	-11.132
▁공개됐다	-11.1322
야당	-11.1324
▁들을	-11.1325
구가	-11.1328
▁와중에	-11.1328
▁인디	-11.133
때문에	-11.1332
▁아버지가	-11.1332
궐	-11.1333
리움	-11.1333
▁기간이	-11.1333
▁몰입	-11.1334
IA	-11.1334
▁취약	-11.1336
▁점심	-11.1337
▁전인	-11.1339
▁하향	-11.1341
▁답변을	-11.1342
▁필요할	-11.1344
▁브랜드로	-11.1344
에스	-11.1344
▁이었다	-11.1346
▁일원	-11.1347
▁짐	-11.1347
▁저도	-11.1348
▁채우	-11.135
▁당해	-11.1353
he	-11.1356
투쟁	-11.1357
▁생각할	-11.1357
바람	-11.1362
▁선거에	-11.1362
▁버거	-11.1362
▁흙	-11.1366
▁파동	-11.1368
▁늦게	-11.1368
▁정도를	-11.1369
▁신약	-11.1369
음이	-11.1369
▁관해	-11.137
▁소감을	-11.1371
냉	-11.1372
▁황창규	-11.1372
▁오직	-11.1372
권은	-11.1375
▁의원들	-11.1375
▁받았고	-11.1377
▁용기	-11.1378
▁신부	-11.1378
랍	-11.138
먼트	-11.138
▁악용	-11.138
▁의약품	-11.1381
▁성추행	-11.1382
하기에	-11.1382
▁편의성	-11.1384
per	-11.1386
2016	-11.1388
▁닭	-11.1391
▁억	-11.1392
▁시민들의	-11.1393
▁심정	-11.1393
▁막고	-11.1395
▁부회장이	-11.1396
▁대중화	-11.1397
시쯤	-11.1401
CE	-11.1402
MD	-11.1404
▁프랑스의	-11.1405
▁성향	-11.1406
그래	-11.1406
▁눈치	-11.1407
▁묶어	-11.1407
▁풍성한	-11.1408
밋	-11.1408
▁들어오	-11.1408
결정	-11.1408
▁지인	-11.1412
제주	-11.1415
▁사용량	-11.1415
RA	-11.1415
최고	-11.1417
리온	-11.1421
▁의견도	-11.1421
▁받으면	-11.1422
▁업계는	-11.1423
▁맺었다	-11.1423
판에	-11.1423
▁장을	-11.1423
▁지난해부터	-11.1424
긋	-11.1428
▁실생활에	-11.1428
▁경영권	-11.1428
▁발령	-11.1429
사업에	-11.143
구간	-11.1431
▁작성한	-11.1431
▁표준화	-11.1431
▁세우고	-11.1432
▁자기가	-11.1432
▁네오	-11.1436
▁상점	-11.1436
하겠다며	-11.1437
▁선보이며	-11.1438
SE	-11.1438
▁처방	-11.1439
▁공정위	-11.144
▁후보자의	-11.144
▁상태에	-11.144
▁독서	-11.144
▁69	-11.144
▁잠깐	-11.1441
▁관람객	-11.1443
▁외형	-11.1443
매출	-11.1446
▁주연	-11.1446
▁조국	-11.1449
▁윤병세	-11.1449
자연	-11.145
반도체	-11.1451
▁왜냐하면	-11.1452
사업부	-11.1452
▁잎	-11.1452
층을	-11.1452
▁포격	-11.1453
자고	-11.1455
회원	-11.1455
▁구축하고	-11.1457
▁잡을	-11.1458
▁1950	-11.1458
빅	-11.1459
▁사회를	-11.1459
▁거취	-11.1459
▁행정부	-11.1463
열차	-11.1465
▁얻기	-11.1466
▁독재	-11.1466
▁않았다는	-11.1468
▁밸런스	-11.1468
2.5	-11.147
▁이집트	-11.1471
▁고도	-11.1472
총괄	-11.1472
▁합의가	-11.1474
▁업체인	-11.1474
▁이사장은	-11.1476
▁상시	-11.1477
▁쏟	-11.1478
▁책임이	-11.1478
▁높아졌다	-11.1478
부로	-11.1479
TE	-11.1481
▁콘텐츠가	-11.1482
▁탁월한	-11.1482
▁아까	-11.1483
이브	-11.1483
케이블	-11.1484
▁성과가	-11.1484
▁확	-11.1485
▁지원이	-11.1485
▁그렇다	-11.1486
▁플래시	-11.1486
▁누리과정	-11.1487
▁전산	-11.1487
▁조지	-11.1488
▁수비	-11.1488
▁처형	-11.149
▁불편을	-11.1491
▁기대했다	-11.1493
▁둘러보고	-11.1497
▁중국어	-11.1498
MBN	-11.1499
▁도주	-11.1499
▁순서	-11.1504
▁연관	-11.1504
▁2015.05.	-11.1505
▁겉	-11.1507
▁섭	-11.1508
▁한꺼번에	-11.1508
▁위치하고	-11.1509
▁율	-11.1509
▁군단	-11.1511
▁특검	-11.1513
▁비트	-11.1513
▁혼합	-11.1514
▁일러스트	-11.1514
였다고	-11.1514
▁거짓	-11.1514
축구	-11.1514
▁생각하면	-11.1515
▁확인된	-11.1515
▁스포츠경향	-11.1517
▁아무도	-11.1517
국으로	-11.1518
▁헌신	-11.1519
▁땐	-11.152
▁오늘은	-11.152
▁가능하고	-11.1521
▁스타크래프트	-11.1521
▁늘리고	-11.1521
▁세번째	-11.1521
▁초콜릿	-11.1522
▁체제를	-11.1522
▁이름의	-11.1523
▁쓰인다	-11.1523
끈	-11.1523
윙	-11.1523
▁적용된다	-11.1524
▁펼칠	-11.1524
▁김형	-11.1525
DA	-11.1527
식에	-11.1529
▁시작된다	-11.1532
조원을	-11.1532
▁생계	-11.1532
▁반사	-11.1534
▁컴퓨팅	-11.1535
특구	-11.1537
▁아이들의	-11.1541
시청	-11.1546
▁공간이	-11.1546
▁아라	-11.1547
-2	-11.1549
▁역전	-11.155
▁많	-11.1551
▁없는데	-11.1551
▁레이싱	-11.1552
판이	-11.1555
▁과학자	-11.1556
된다고	-11.1556
▁집행유예	-11.1557
▁또다른	-11.1557
비서관	-11.1557
▁외환은행	-11.1563
▁약속을	-11.1564
▁전당대회	-11.1564
▁집으로	-11.1565
▁드러내	-11.1565
근무	-11.1565
소방서	-11.1569
▁서술	-11.157
▁연일	-11.1571
▁표현을	-11.1571
▁원칙을	-11.1571
스타일	-11.1572
▁켄	-11.1574
▁늘리는	-11.1574
웠	-11.1574
▁거라고	-11.1574
▁장기간	-11.1575
▁지키기	-11.1575
▁VOD	-11.1575
▁사업화	-11.1578
▁참관	-11.1578
▁순천	-11.1578
▁생기	-11.1578
▁공인	-11.1578
▁현지에서	-11.1578
▁밝	-11.1579
▁내놓을	-11.158
▁내용으로	-11.1581
▁준비한	-11.1582
▁MBN	-11.1582
▁국가에서	-11.1584
▁작업에	-11.1584
▁내년부터	-11.1584
▁실험을	-11.1584
▁작품은	-11.1585
▁조약	-11.1585
버리	-11.1588
▁확률이	-11.1588
▁향상을	-11.1588
▁코엑스	-11.1589
▁l	-11.1589
▁상처	-11.159
▁대치	-11.159
▁걷	-11.159
▁the	-11.1594
▁감자	-11.1594
프레	-11.1594
▁살아남	-11.1596
▁떠난	-11.1598
▁재미있게	-11.1598
▁그럼	-11.1598
▁오마이뉴스	-11.1599
▁추억	-11.1599
▁체결한	-11.1599
▁나타날	-11.1602
쥬	-11.1602
웃	-11.1602
▁듯하다	-11.1603
▁공급하는	-11.1603
▁습	-11.1604
▁나라를	-11.1605
원들이	-11.1606
면을	-11.1606
▁이루는	-11.1607
자회담	-11.1607
▁하락했다	-11.1607
▁사업으로	-11.1608
▁응시	-11.1609
▁힘들어	-11.1609
▁들어온	-11.1611
▁수령	-11.1611
▁개발이	-11.1613
인기만화	-11.1613
속에	-11.1613
▁논의했다	-11.1614
▁버리고	-11.1614
▁모르고	-11.1614
르는	-11.1615
▁뻔	-11.1616
▁플라스틱	-11.1616
▁루트	-11.1617
▁차지한	-11.1617
▁지지층	-11.1617
리조트	-11.1619
비행	-11.1619
아야	-11.1624
▁것이기	-11.1624
▁등재	-11.1625
ers	-11.1626
▁경향닷컴	-11.1627
▁믿음	-11.1628
▁실시한다고	-11.1629
▁어렵다고	-11.1631
▁조언	-11.1632
화와	-11.1632
▁기관이	-11.1632
▁텍스트	-11.1633
예정	-11.1638
▁것만	-11.1639
▁제임스	-11.164
▁[	-11.1641
▁구름	-11.1643
▁최고위원이	-11.1643
▁안으로	-11.1645
▁일정한	-11.1645
▁스테	-11.1646
▁수확	-11.1647
▁뿌	-11.1647
시절	-11.1647
▁89	-11.1648
▁신제품을	-11.1648
▁주식을	-11.1649
▁무엇인가	-11.1649
▁AS	-11.1652
▁소울	-11.1652
▁감염병	-11.1652
▁증가할	-11.1653
▁미뤄	-11.1654
▁들어보	-11.1654
▁지역이	-11.1655
교실	-11.1656
▁대표로	-11.1656
▁눈물	-11.1657
▁헤이	-11.1657
터널	-11.1658
▁웨딩	-11.1659
▁반등	-11.166
▁납	-11.1662
▁KAIST	-11.1663
▁선관위	-11.1663
▁기대작	-11.1664
책임자	-11.1666
▁목사	-11.1668
요금제	-11.1668
▁정도는	-11.1668
뜨	-11.1669
▁꾀	-11.1671
▁가중	-11.1672
▁코인	-11.1677
▁싶	-11.1677
층에서	-11.1679
▁권유	-11.1681
킴	-11.1681
▁고르	-11.1681
수입	-11.1681
▁방수	-11.1684
▁관건	-11.1685
능력을	-11.1685
사상	-11.1687
▁정신적	-11.1687
모씨	-11.1689
▁고등	-11.169
▁효과는	-11.169
="	-11.1691
디스	-11.1692
▁사랑하는	-11.1692
▁관료	-11.1693
▁문제도	-11.1693
▁아카	-11.1694
인재	-11.1694
▁셋째	-11.1694
▁금융기관	-11.1694
▁친구들	-11.1695
▁구축해	-11.1695
▁퍼블리싱	-11.1695
▁요인이	-11.1696
▁기술개발	-11.1696
▁반전	-11.1696
▁풍경	-11.1698
▁당국	-11.1698
▁HP	-11.1699
▁내용에	-11.17
▁초등학생	-11.1701
신이	-11.1703
천억	-11.1705
▁이사는	-11.1706
일반	-11.1706
렵	-11.1707
▁8000	-11.1708
▁스킬을	-11.1708
▁오류	-11.1709
▁올해로	-11.1711
▁무대에	-11.1712
스카	-11.1713
미가	-11.1713
▁구매하는	-11.1713
▁부장	-11.1714
소송	-11.1714
매체	-11.1717
▁금지한	-11.1718
▁협업을	-11.1719
▁말라	-11.1719
▁사업부	-11.1719
▁이용자에게	-11.1723
책임	-11.1723
▁내용이다	-11.1724
▁업체는	-11.1726
전시회	-11.1726
인구	-11.1727
▁시기를	-11.1728
▁소멸	-11.1728
▁고려한	-11.1728
▁지역경제	-11.1731
▁방문객	-11.1732
▁기대할	-11.1734
▁현실을	-11.1735
▁음성인식	-11.1735
▁경찰서	-11.1736
슈퍼	-11.1736
▁느끼고	-11.1736
▁없었고	-11.1738
▁1989	-11.1739
▁북한을	-11.174
▁금요일	-11.1741
히는	-11.1742
ice	-11.1743
되었는데	-11.1743
▁/	-11.1745
만원이	-11.1747
▁나누어	-11.1747
▁가계부채	-11.1748
효율	-11.175
▁딴	-11.1751
▁테라	-11.1751
▁대부분은	-11.1753
▁투표를	-11.1754
▁배후	-11.1757
지점	-11.1757
▁고장	-11.1757
▁화력	-11.1757
▁거뒀다	-11.1758
▁원정	-11.1759
▁게이트	-11.1759
▁기조연설	-11.1759
▁국왕	-11.176
▁약한	-11.1762
더라	-11.1762
▁늦	-11.1762
▁동아	-11.1763
▁경상북도	-11.1763
▁정한	-11.1763
▁스토리지	-11.1764
▁수요를	-11.1764
▁낚시	-11.1765
▁부총리는	-11.1765
팀장은	-11.1766
▁난다	-11.1766
년대에	-11.1767
▁1300	-11.1768
▁육아	-11.177
▁서비스인	-11.177
▁전문가들이	-11.1772
▁펼쳤다	-11.1772
이냐	-11.1772
▁대상은	-11.1775
▁학생이	-11.1775
▁침투	-11.1777
▁회원국	-11.1777
정은	-11.1779
엑스	-11.1779
회담	-11.178
센트	-11.1782
▁의지가	-11.1782
지않	-11.1783
▁작중	-11.1783
▁전달하는	-11.1784
▁합작	-11.1784
▁저자	-11.1785
▁그렇지만	-11.1785
▁급락	-11.1786
▁삽입	-11.1787
▁유료방송	-11.1788
시장은	-11.1788
▁전체회의에서	-11.1789
▁프로세스	-11.1791
그램	-11.1791
▁0.0	-11.1791
▁77	-11.1792
▁중앙대	-11.1793
▁전력을	-11.1794
▁대략	-11.1794
▁그렇습니다	-11.1797
곳에서	-11.18
▁그것도	-11.1802
▁확보해	-11.1804
▁전국적으로	-11.1805
▁믿	-11.1805
▁설명회	-11.1808
▁보다는	-11.1808
▁탈모	-11.1808
▁뜨	-11.1809
계에	-11.1809
▁방문하는	-11.181
▁공지를	-11.181
▁인구가	-11.1811
▁한데	-11.1811
정지	-11.1811
▁스타벅스	-11.1812
EA	-11.1813
▁전체적인	-11.1813
▁비중	-11.1813
▁화제다	-11.1814
▁중고	-11.1814
▁자외선	-11.1815
▁짓고	-11.1816
▁컬렉션	-11.1817
▁장점을	-11.1818
▁초월	-11.1818
▁해당한다	-11.1819
ation	-11.182
▁생산량	-11.1822
▁보물	-11.1823
▁가져	-11.1824
▁호조	-11.1825
▁대표에게	-11.1825
▁디자인과	-11.1826
▁근절	-11.1827
▁세계관	-11.1834
▁굽	-11.1834
▁세종연합뉴스	-11.1835
▁이어갈	-11.1837
지역에서	-11.1837
▁오버	-11.1837
▁감정을	-11.1837
워드	-11.1838
▁호평을	-11.1838
천명	-11.1839
▁예능	-11.184
▁주인공이	-11.1842
▁간주	-11.1842
▁전문가들	-11.1842
▁개선에	-11.1843
거리는	-11.1845
성으로	-11.1845
빗	-11.1847
만으로도	-11.1848
▁보복	-11.1849
▁관여	-11.1849
길을	-11.185
▁이곳에	-11.1852
[	-11.1852
▁다행히	-11.1854
▁났다	-11.1855
심의	-11.1855
▁정상적인	-11.1856
뼈	-11.1857
살을	-11.1858
르트	-11.1859
▁이식	-11.1861
▁대회의실에서	-11.1861
▁미친	-11.1861
▁98	-11.1862
▁화면에	-11.1862
▁보험사	-11.1865
리게	-11.1865
▁숭	-11.1866
▁재원	-11.1866
하긴	-11.1869
▁의제	-11.1869
▁게임사	-11.1869
▁기재	-11.187
▁증강현실	-11.1875
제와	-11.1875
▁보도입니다	-11.1875
▁국회를	-11.1876
▁차례로	-11.1877
았고	-11.1877
▁증가율	-11.1879
▁처리할	-11.1881
▁속의	-11.1881
▁인수합병	-11.1882
▁이뤄지고	-11.1883
▁판사	-11.1883
▁내면	-11.1884
▁원유	-11.1887
▁저작권자	-11.1888
진흥	-11.1891
▁비대위	-11.1891
건이	-11.1892
▁금감원	-11.1892
꿈	-11.1893
▁출원	-11.1893
싸	-11.1894
수와	-11.1895
▁클로	-11.1896
▁공판	-11.1896
▁핵무기	-11.1896
▁금일	-11.1897
▁상품으로	-11.1898
박사	-11.1899
▁편지	-11.1899
▁바탕	-11.1899
▁강점	-11.1899
▁포트폴리오	-11.1899
경험	-11.19
▁김정일	-11.1901
필드	-11.1903
▁화산	-11.1903
하자고	-11.1904
마크	-11.1905
빔	-11.1905
▁원금	-11.1905
▁의미다	-11.1907
▁현금처럼	-11.1907
리와	-11.1908
▁구매한	-11.1908
▁저소득층	-11.1909
▁역임	-11.191
▁본회의를	-11.1911
▁당시의	-11.1911
▁적게	-11.1912
▁연산	-11.1913
▁브리	-11.1916
▁과제를	-11.1917
▁7000	-11.1917
TA	-11.1917
▁다룬	-11.1918
시키	-11.1918
▁사찰	-11.1919
▁고통을	-11.1919
▁약속했다	-11.1922
▁크림	-11.1922
▁대회를	-11.1925
▁SD	-11.1925
▁900	-11.1926
▁셈	-11.1927
▁신중	-11.1927
▁복제	-11.1929
▁관련해서	-11.193
▁컨텐츠	-11.1932
패드	-11.1935
▁외치고	-11.1936
▁IC	-11.1938
▁합리적	-11.1939
부와	-11.194
혔	-11.1942
▁참여한다	-11.1944
▁권리를	-11.1944
▁일본에	-11.1945
▁김선	-11.1946
▁바깥	-11.1946
▁커뮤니티에	-11.1947
▁포스터	-11.1948
▁일일	-11.1948
이거나	-11.1952
▁대통령에게	-11.1954
▁하겠다는	-11.1955
겔	-11.1957
▁휴가	-11.1957
룰	-11.196
▁고령	-11.1961
▁방대한	-11.1962
법안	-11.1962
진은	-11.1962
투스	-11.1962
up	-11.1963
▁참가자들이	-11.1964
▁동탄	-11.1965
지며	-11.1967
▁톤	-11.1968
▁밀집	-11.1969
▁생겼	-11.1969
▁형태를	-11.197
▁삼성페이	-11.1971
▁건담	-11.1971
▁부상을	-11.1972
▁일에	-11.1976
▁강화했다	-11.1976
▁위치에	-11.1977
▁메이크업	-11.1977
▁선호도	-11.1977
▁뒤집	-11.1979
▁로밍	-11.198
▁전제	-11.198
▁군산	-11.1982
▁물고기	-11.1983
▁외관	-11.1984
▁운영할	-11.1985
RO	-11.1986
▁동반성장	-11.1987
▁가기	-11.1987
▁본부장	-11.1988
▁오르는	-11.1988
▁시리즈를	-11.1988
겠죠	-11.199
▁전방	-11.1993
▁빚어	-11.1994
▁j	-11.1994
▁맛이	-11.1995
▁잠재	-11.1996
▁교육과정	-11.1997
▁프린터	-11.2002
▁부분에서	-11.2003
▁사용자는	-11.2003
▁약화	-11.2007
여자	-11.2007
▁걸릴	-11.2007
▁고스란히	-11.2008
▁내정	-11.2008
▁행보를	-11.2011
덤	-11.2013
▁출자	-11.2014
층이	-11.2016
방안을	-11.2016
▁개혁안	-11.2017
워크	-11.2018
▁들어서는	-11.2021
▁끝으로	-11.2021
▁의혹에	-11.2024
네트웍스	-11.2025
▁아니었	-11.2026
▁파손	-11.2026
▁전해졌습니다	-11.2027
▁위험을	-11.2028
▁예수	-11.2028
▁네티즌들은	-11.2031
법과	-11.2033
▁경제활성화	-11.2033
▁소진	-11.2038
▁반박했다	-11.2038
즘	-11.2038
▁싱	-11.2039
▁세균	-11.204
▁덤	-11.204
▁너무나	-11.204
▁감독의	-11.2043
▁청정	-11.2043
▁파업	-11.2045
놓	-11.2047
이닝	-11.2051
▁일제히	-11.2053
위원장은	-11.2053
산업단지	-11.2053
▁규정하고	-11.2053
▁벼	-11.2055
▁벌여	-11.2055
▁살리기	-11.2055
▁컵	-11.2056
▁조선시대	-11.2057
▁주어진다	-11.2059
있게	-11.2062
땅	-11.2062
▁키우는	-11.2063
▁좌석	-11.2063
법으로	-11.2063
▁신도시	-11.2063
▁삼성그룹	-11.2065
▁확대하는	-11.2066
뚜	-11.2066
뚝	-11.2066
▁학생들을	-11.2066
▁부산연합뉴스	-11.2068
연수	-11.2069
▁일어날	-11.207
▁잉글랜드	-11.2071
ue	-11.2072
▁잃고	-11.2072
회로	-11.2073
▁던져	-11.2075
유로	-11.2075
▁발전소	-11.2077
▁소스	-11.2077
▁물품	-11.2079
▁일찍	-11.208
▁주위	-11.208
▁캐릭터의	-11.2081
▁목표다	-11.2082
▁컷오프	-11.2083
▁아이디	-11.2087
▁용도	-11.2089
▁성명을	-11.209
▁일본인	-11.2091
▁전망입니다	-11.2092
지인	-11.2093
번가	-11.2093
▁건강에	-11.2094
▁돌파했다	-11.2095
▁고려하면	-11.2095
네스	-11.2095
스퀘어	-11.2096
▁국민과	-11.2096
▁공사를	-11.2096
렸고	-11.2097
▁인물들	-11.2098
파워	-11.2099
레드	-11.2099
▁결승전	-11.2099
▁세제	-11.2099
▁개헌	-11.21
설이	-11.2101
이익	-11.2102
▁이용자들에게	-11.2102
▁전주시	-11.2103
▁시간과	-11.2104
▁조심	-11.2104
▁횡령	-11.2104
▁농민	-11.2106
▁크레	-11.2108
▁신상	-11.211
▁장교	-11.2113
▁리조트	-11.2118
▁레볼루션	-11.212
2’	-11.2121
대원	-11.2123
▁함유	-11.2124
것이	-11.2124
▁조립	-11.2124
▁재계	-11.2132
이었는데	-11.2132
▁제공하며	-11.2132
▁최소한	-11.2133
맞이	-11.2133
용량	-11.2133
님이	-11.2135
▁연애	-11.2137
▁국내에서는	-11.2141
▁보세요	-11.2141
▁부작용	-11.2141
▁엔지니어	-11.2141
▁교실	-11.2142
▁확인하는	-11.2145
▁랭킹	-11.2147
▁최우선	-11.2147
▁SS	-11.2148
일까	-11.215
▁OECD	-11.215
▁혜	-11.2152
▁73	-11.2152
▁제압	-11.2153
▁활동하고	-11.2156
롯데월드	-11.2157
▁늘리	-11.2158
▁시야	-11.2159
ack	-11.2161
▁편이	-11.2161
▁데리고	-11.2162
획	-11.2162
▁오픈소스	-11.2162
▁의하여	-11.2163
체로	-11.2164
▁세계의	-11.2164
▁띠	-11.2164
전국	-11.2166
▁추세다	-11.2167
▁신속한	-11.2168
2017	-11.2171
▁고무	-11.2171
▁가이드	-11.2173
타로	-11.2174
▁관광지	-11.2175
▁복무	-11.2175
▁득점	-11.2177
▁배우자	-11.2177
▁인천국제공항	-11.2178
▁상승세를	-11.2178
▁대단히	-11.2178
▁브라	-11.2181
▁변호인	-11.2181
그린	-11.2181
▁인선	-11.2181
▁김영란법	-11.2181
▁일본어	-11.2182
▁결정하는	-11.2182
실험	-11.2185
▁복용	-11.2186
아가	-11.2186
▁컨테이너	-11.2186
됐기	-11.2187
당은	-11.2188
▁시가총액	-11.219
▁희귀	-11.2191
▁가볍게	-11.2191
▁침략	-11.2192
▁실체	-11.2193
▁면적은	-11.2194
▁전선	-11.2194
하신	-11.2195
방을	-11.2195
▁컬	-11.2196
개소	-11.2197
▁전쟁이	-11.2197
▁부재	-11.2198
형을	-11.2198
▁투입해	-11.2199
▁간편결제	-11.2199
▁악성	-11.22
br	-11.2201
늄	-11.2203
급여	-11.2203
셉	-11.2204
▁드러낸	-11.2204
▁맡기	-11.2205
▁용역	-11.2206
마루	-11.2209
▁결정이	-11.221
▁II	-11.221
▁공개하고	-11.2211
stage	-11.2214
▁현실화	-11.2214
▁요금할인	-11.2215
▁사죄	-11.2216
지대	-11.2216
▁내부에	-11.2216
▁회동을	-11.2217
▁버티	-11.2217
▁일방적으로	-11.2218
▁내리는	-11.2219
▁영장	-11.222
▁끓	-11.222
▁과태료	-11.2222
▁멸망	-11.2223
▁사회주의	-11.2223
▁비례	-11.2224
으므로	-11.2224
▁용이	-11.2224
▁하는지	-11.2226
▁구경	-11.2226
▁조건으로	-11.2227
▁부사장이	-11.2228
멀	-11.2229
▁시내버스	-11.223
▁극심한	-11.223
▁여담으로	-11.223
▁강조하고	-11.2231
▁워크숍	-11.2231
▁부리	-11.2233
▁고품질	-11.2234
▁감사원	-11.2234
▁혁신안	-11.2238
▁사과를	-11.2238
당이	-11.2238
▁국정감사에서	-11.2239
▁부당	-11.2239
▁같아	-11.224
▁소문	-11.2242
▁대행	-11.2242
▁“‘	-11.2243
등의	-11.2243
aver	-11.2244
▁벌이	-11.2244
▁장성	-11.2244
▁마찬가지다	-11.2244
▁유물	-11.2244
▁삼고	-11.2247
▁할당	-11.2248
킥	-11.2248
▁비트코인	-11.2248
▁제기했다	-11.2249
▁구호	-11.2252
본다	-11.2253
▁청취	-11.2254
포를	-11.2257
▁핑크	-11.2257
▁설치한	-11.2257
▁퇴원	-11.2258
실에	-11.2258
▁이들에게	-11.2259
▁장기적으로	-11.2259
렌즈	-11.226
유지	-11.2261
▁인재를	-11.2261
▁사형	-11.2262
▁불공정	-11.2262
▁리콜	-11.2263
▁입지를	-11.2263
써	-11.2264
▁현대백화점	-11.2265
▁스마트폰의	-11.2266
▁명문	-11.2266
▁해운대	-11.2266
▁노사정	-11.2266
▁프로그램에	-11.2267
▁자세	-11.2269
▁원가	-11.227
7691	-11.227
▁CPU	-11.2272
▁침몰	-11.2273
▁깊	-11.2274
ST	-11.2274
▁아래로	-11.2275
▁선택을	-11.2276
▁서비스의	-11.2276
▁검찰의	-11.2278
▁요새	-11.2278
▁엔진을	-11.2278
▁오고	-11.2279
▁탈퇴	-11.228
▁임용	-11.228
하길	-11.228
▁공략에	-11.228
▁움직이	-11.2282
▁콘퍼런스	-11.2284
브리	-11.2286
▁대전시	-11.2287
SDI	-11.2287
▁교원	-11.2288
▁기재부	-11.229
더스	-11.2291
▁국경	-11.2295
▁레전드	-11.2295
▁할지	-11.2295
▁황우여	-11.2298
산이	-11.2299
제도를	-11.23
▁학과	-11.2302
너스	-11.2303
▁도망	-11.2303
건축	-11.2303
기업의	-11.2304
▁이어진다	-11.2304
▁산소	-11.2305
▁얽	-11.2305
▁덴마크	-11.2305
▁버프	-11.2307
▁안된다	-11.2308
▁젊	-11.2308
기어	-11.2308
ber	-11.2309
▁설치하고	-11.2309
▁안건	-11.231
▁뚜렷한	-11.2312
▁협조를	-11.2315
▁할인된	-11.2315
▁하계	-11.2315
▁아티스트	-11.2316
▁특허를	-11.2316
분부터	-11.2318
▁플레이를	-11.232
▁날을	-11.2321
▁보자	-11.2321
▁전문가들의	-11.2321
▁맞았다	-11.2321
NO	-11.2322
자산운용	-11.2324
▁페이스북트위터	-11.2324
▁횡	-11.2325
▁정서	-11.2325
조의	-11.2333
▁백제	-11.2333
om	-11.2333
▁시한	-11.2333
▁소통을	-11.2335
▁79	-11.2335
▁공기청정기	-11.2336
▁승격	-11.2337
인들은	-11.234
▁도착한	-11.2341
▁대목	-11.2341
▁바뀐	-11.2342
▁혁신위	-11.2342
화에	-11.2343
트와	-11.2343
▁카지노	-11.2343
▁마우스	-11.2345
▁변호사는	-11.2345
르고	-11.2345
▁예로	-11.2345
()·	-11.2346
▁세션	-11.2346
빠	-11.2346
▁시너지를	-11.2347
▁차장	-11.2349
▁오지	-11.2349
계좌	-11.2349
▁시작되는	-11.2352
역이	-11.2352
▁되길	-11.2352
▁해임	-11.2352
▁분석된다	-11.2354
바닥	-11.2354
▁공제	-11.2356
▁87	-11.2356
▁☞	-11.2356
▁아이들을	-11.2357
크로	-11.2357
게이트	-11.2357
해져	-11.2361
▁생긴다	-11.2365
▁대여	-11.2366
▁지위	-11.2366
▁여부는	-11.2366
▁보석	-11.2368
▁김씨	-11.2369
▁작품이다	-11.2369
▁여론이	-11.2371
노스	-11.2372
여름	-11.2374
▁경상남도	-11.2375
▁있겠	-11.2375
▁일일이	-11.2375
▁크기가	-11.2376
▁수행하는	-11.2376
▁공립	-11.2378
▁표적	-11.238
렘	-11.2381
업체인	-11.2382
▁휴업	-11.2384
▁많습니다	-11.2385
▁강서구	-11.2385
▁염증	-11.2386
▁성분이	-11.2386
▁조치가	-11.2388
▁무효	-11.2388
▁타워	-11.2388
▁동향	-11.239
▁전신	-11.239
▁크루즈	-11.2391
▁자신은	-11.2393
▁비슷하다	-11.2394
▁비서관	-11.2396
▁나름대로	-11.2397
테르	-11.2397
놔	-11.2398
해서는	-11.2401
▁결정에	-11.2403
▁사라진	-11.2404
템	-11.2405
▁존재하지	-11.2407
쉽	-11.2407
▁됐다며	-11.2407
▁주역	-11.2408
▁사용된	-11.2409
▁감염자	-11.2409
▁국민안전처	-11.241
대행	-11.241
기능을	-11.2411
▁그녀가	-11.2411
▁방안에	-11.2412
▁쏠리고	-11.2413
▁오사카	-11.2415
울산	-11.2415
▁누르면	-11.2416
▁행진	-11.2418
▁조례	-11.2418
ne	-11.2419
▁닌텐도	-11.2419
나마	-11.242
▁메일	-11.2421
▁라이선스	-11.2422
폭탄	-11.2422
▁자격증	-11.2422
▁관점	-11.2424
▁해준다	-11.2424
점에	-11.2424
▁싼	-11.2424
▁제국의	-11.2425
▁스마트폰과	-11.2426
▁여는	-11.2426
회복	-11.2426
▁콘솔	-11.2428
▁치아	-11.2429
▁선행	-11.243
▁스탠	-11.243
▁운영에	-11.243
노선	-11.2431
▁불량	-11.2433
▁오산	-11.2434
비와	-11.2434
상환	-11.2435
▁학교에	-11.2437
▁운명	-11.2443
▁전투에서	-11.2444
동욱	-11.2445
▁확인해	-11.2447
적이	-11.2447
▁고래	-11.2448
▁상인	-11.2449
왔던	-11.245
▁나이가	-11.245
▁노예	-11.2451
주일	-11.2453
▁피할	-11.2453
▁비만	-11.2454
▁SKT	-11.2455
▁발견했다	-11.2456
▁소비자에게	-11.2456
▁낸다	-11.2457
▁개념을	-11.2459
홈쇼핑	-11.246
▁성장했다	-11.246
구는	-11.2461
인권	-11.2461
▁가톨릭	-11.2464
법상	-11.2464
▁소매	-11.2464
▁얇	-11.2465
아동	-11.2466
▁과거의	-11.2466
▁주관하는	-11.2467
▁요소가	-11.2468
▁낡은	-11.247
▁현대중공업	-11.247
졌지만	-11.247
▁물었다	-11.2471
▁비박계	-11.2472
▁유승관	-11.2472
위와	-11.2472
어는	-11.2472
▁돌리	-11.2472
▁손목	-11.2473
▁해석이	-11.2474
▁세계에	-11.2474
▁찾아내	-11.2474
▁어린이들이	-11.2475
▁디스플레이를	-11.2476
당의	-11.2477
▁게시물	-11.2477
동이	-11.2478
감시	-11.2479
▁휴식	-11.248
ru	-11.2481
▁뉴스는	-11.2481
▁서면	-11.2482
뇨	-11.2484
시장이	-11.2484
▁혈관	-11.2484
해줄	-11.2485
▁단독으로	-11.2487
▁샌	-11.2487
▁프로그램으로	-11.2487
▁배틀그라운드	-11.2488
안은	-11.2488
이런	-11.2489
▁가깝다	-11.2489
▁발음	-11.2491
▁이러	-11.2492
▁재차	-11.2494
▁수행할	-11.2498
학부	-11.2499
▁위주의	-11.2503
▁기술력	-11.2503
▁체류	-11.2504
▁개체	-11.2505
iz	-11.2506
▁성명	-11.2506
▁매력을	-11.2509
▁불편한	-11.2509
▁이석	-11.2511
체인	-11.2511
▁디스	-11.2511
작품	-11.2512
배를	-11.2515
▁수단으로	-11.2515
행을	-11.2515
그룹의	-11.2518
▁박지혜	-11.2518
스튜디오	-11.2518
▁한민구	-11.2519
▁탐색	-11.2519
▁소식에	-11.2519
▁된다면	-11.252
▁측면이	-11.252
▁김지	-11.2522
전의	-11.2522
▁높인	-11.2524
▁내세운	-11.2524
▁스토리를	-11.2524
▁서서히	-11.2525
▁LA	-11.2526
▁재신임	-11.2527
▁엔딩	-11.2528
▁전략공천	-11.2528
▁레이드	-11.253
▁양상	-11.2531
▁당신	-11.2531
SP	-11.2531
▁것이냐	-11.2532
▁열풍	-11.2532
▁액티브	-11.2533
▁생각하지	-11.2533
▁바뀌	-11.2533
▁전년대비	-11.2536
▁신청할	-11.2536
▁필름	-11.2537
▁돌아와	-11.2537
줘야	-11.254
두고	-11.254
위험	-11.2541
▁민심	-11.2541
te	-11.2541
▁겨	-11.2542
▁기술적	-11.2542
▁먹으면	-11.2543
▁원인으로	-11.2543
▁당황	-11.2543
스토	-11.2546
현실	-11.2549
▁맛집	-11.255
▁서청원	-11.2551
▁지원하기	-11.2551
▁고사	-11.2553
▁재활용	-11.2553
▁상품은	-11.2556
▁우편	-11.2558
화에서	-11.2559
사례	-11.2561
▁원자	-11.2563
▁문화가	-11.2563
보증	-11.2563
▁실장은	-11.2563
이동	-11.2564
▁오를	-11.2564
▁현황을	-11.2566
해주고	-11.2566
▁2015.04.2	-11.2567
만명의	-11.2568
▁맘	-11.2568
▁개발할	-11.2569
▁규모다	-11.2569
▁작품으로	-11.2569
▁척추	-11.2569
▁공개한다	-11.2571
▁졸업하고	-11.2571
▁않겠다는	-11.2571
▁지켜보	-11.2572
▁데미지	-11.2572
▁챙기	-11.2572
▁전라남도	-11.2573
희망	-11.2576
센터장	-11.2576
▁보건소	-11.2576
▁고민을	-11.2576
국은	-11.2577
▁홈페이지에	-11.2577
▁텐데	-11.2577
해주	-11.2578
▁규정을	-11.2579
▁압축	-11.2579
계열	-11.258
▁끝나고	-11.258
▁롱	-11.2581
▁우리나라에서	-11.2582
▁버전을	-11.2582
▁정해	-11.2582
▁이어폰	-11.2582
공학과	-11.2583
▁거주하는	-11.2585
▁목격	-11.2587
▁이노	-11.2587
▁경찰과	-11.2589
▁만났	-11.259
▁감안	-11.2591
▁마이크	-11.2592
▁젠	-11.2592
▁많을	-11.2592
▁하기도	-11.2593
▁정동영	-11.2593
▁걸리는	-11.2594
▁친일	-11.2594
졌으며	-11.2599
변화	-11.26
▁나타났습니다	-11.2603
닷	-11.2604
▁농성	-11.2605
년여	-11.2607
편을	-11.2608
▁토론을	-11.2608
▁호수	-11.2609
▁면역력	-11.261
▁분해	-11.261
▁수직	-11.261
▁촬영을	-11.2614
▁있나	-11.2614
▁결함	-11.2615
▁테슬라	-11.2617
au	-11.2618
▁인물로	-11.2618
▁농어촌	-11.2618
▁TF	-11.2619
았	-11.262
▁넷마블은	-11.2621
▁일괄	-11.2622
▁페르	-11.2622
껏	-11.2622
▁받았습니다	-11.2622
▁꽂	-11.2623
▁철강	-11.2623
부에서	-11.2624
진을	-11.2624
▁불꽃	-11.2624
▁봤	-11.2627
▁실업	-11.2628
▁관련해서는	-11.2628
▁기념식	-11.2628
▁아이스	-11.2629
▁포스트	-11.2629
▁히어로	-11.263
▁곱	-11.2631
주에	-11.2631
▁없었다고	-11.2632
▁스키	-11.2633
서버	-11.2633
▁차량에	-11.2633
정원	-11.2634
트랙	-11.2634
▁최우수	-11.2634
섹	-11.2636
▁때문으로	-11.2636
▁우려도	-11.2636
▁귀가	-11.2637
▁지위를	-11.2638
올림픽	-11.2638
▁방위	-11.2638
▁엽	-11.2639
▁완벽하게	-11.264
▁커졌다	-11.264
▁타협	-11.2641
▁캐릭터로	-11.2641
▁권장	-11.2641
▁불필요한	-11.2642
▁고객사	-11.2643
현상	-11.2643
할지	-11.2643
툰	-11.2644
▁한참	-11.2646
si	-11.2646
▁댄스	-11.2647
▁아동학대	-11.2649
▁배가	-11.2649
▁회사에	-11.2649
▁주목할	-11.265
▁투표율	-11.2651
▁소비자들에게	-11.2652
▁※	-11.2655
▁과목	-11.2656
▁승인을	-11.2656
▁기종	-11.2656
▁경험치	-11.2656
▁만들어야	-11.2658
▁우세	-11.2659
▁과천	-11.2659
▁본점	-11.266
테이	-11.2661
▁돌아오	-11.2661
▁끄	-11.2661
권과	-11.2662
업을	-11.2663
▁원으로	-11.2664
▁높다는	-11.2664
맘	-11.2664
▁진행하며	-11.2665
▁파라	-11.2665
▁여지가	-11.2668
▁사퇴를	-11.2668
▁융	-11.2668
▁사항을	-11.267
▁도민	-11.2671
▁상식	-11.2671
하였	-11.2674
겸	-11.2675
▁잠재력	-11.2676
회계	-11.2676
▁메이저	-11.2677
▁물체	-11.2677
핫이슈	-11.2679
▁인턴기자	-11.2679
▁즐기고	-11.2679
훈련을	-11.268
틱스	-11.2681
▁골든	-11.2682
▁지정된	-11.2682
▁파일을	-11.2682
▁어른	-11.2684
▁자체적으로	-11.2687
▁연예인	-11.2687
▁미스	-11.2688
냐는	-11.2689
▁게이밍	-11.2689
▁대원	-11.269
▁고유의	-11.2691
켄	-11.2692
▁물에	-11.2694
유플러스가	-11.2694
식당	-11.2695
▁기후변화	-11.2697
▁간접	-11.2698
▁연결된	-11.2698
▁결혼식	-11.2701
▁이어서	-11.2701
▁독려	-11.2703
탱	-11.2703
해외	-11.2703
▁박수	-11.2704
▁사전투표	-11.2704
▁비싸	-11.2705
연구센터	-11.2707
라서	-11.2708
▁최첨단	-11.2709
▁수단	-11.2709
▁달러를	-11.2709
▁지도부가	-11.271
▁대대적인	-11.271
▁어디에	-11.2711
▁대남	-11.2711
▁경찰의	-11.2712
▁치러	-11.2712
스런	-11.2713
▁스위치	-11.2713
▁경쟁력이	-11.2713
▁진심으로	-11.2714
▁터지	-11.2714
▁문화예술	-11.2714
▁노력하겠다고	-11.2715
▁서울의	-11.2715
▁전시관	-11.2715
▁RP	-11.2715
▁코치	-11.2716
정희	-11.2716
▁듀	-11.2718
▁통영	-11.2718
우가	-11.272
스쿨	-11.2721
▁잊지	-11.2721
▁신차	-11.2723
▁사령관	-11.2723
▁음주	-11.2723
▁신원	-11.2723
▁때문이	-11.2724
형이	-11.2726
랴	-11.2727
▁구사	-11.2728
▁얼굴이	-11.2728
▁반해	-11.2728
▁학교에서	-11.2728
▁스팀	-11.2728
ak	-11.2733
▁주민들은	-11.2734
▁화장	-11.2735
▁오페라	-11.2735
▁아산	-11.2737
▁과잉	-11.2737
▁입구	-11.2738
▁86	-11.2739
▁골목	-11.2739
▁아우디	-11.2739
▁다할	-11.274
▁총선에	-11.2741
▁도시로	-11.2742
▁플래그십	-11.2742
▁나주	-11.2745
▁왕조	-11.2746
▁윗	-11.2746
fe	-11.2746
▁서울중앙지검	-11.2746
▁포도	-11.2747
▁이거	-11.2749
▁안팎	-11.275
▁지대	-11.2751
그림	-11.2753
▁확대될	-11.2753
▁말부터	-11.2754
▁그러다	-11.2754
명령	-11.2758
영웅	-11.2759
▁일으키는	-11.276
▁끊어	-11.2762
▁크리스마스	-11.2762
▁시에	-11.2763
▁선체	-11.2763
▁다녀	-11.2765
▁마블	-11.2766
▁청와대와	-11.2767
▁유독	-11.2769
▁사은품	-11.277
▁사흘	-11.2771
치의	-11.2772
▁감동	-11.2772
▁분석하고	-11.2772
▁당국이	-11.2773
▁기호	-11.2773
▁자신과	-11.2776
▁호흡기	-11.2779
▁설문조사	-11.278
▁정치가	-11.2781
하기는	-11.2782
웨	-11.2785
▁여성은	-11.2787
▁원이	-11.2788
▁일으켜	-11.2792
▁양사는	-11.2793
력으로	-11.2795
▁만일	-11.2795
▁살짝	-11.2797
▁아버지의	-11.2797
운용	-11.2797
▁데이터베이스	-11.2799
▁삼성은	-11.2801
▁춤	-11.2802
면에	-11.2802
골프	-11.2803
▁여름철	-11.2803
▁기술에	-11.2804
백만	-11.2805
▁지원에	-11.2808
▁의원에	-11.2808
찍	-11.2809
▁띄는	-11.2809
▁추가적인	-11.281
▁농도	-11.2813
▁도입했다	-11.2816
▁사용하여	-11.2816
▁hp	-11.2817
지영	-11.2818
▁드립니다	-11.2819
▁총회	-11.282
▁전년보다	-11.2821
▁줄을	-11.2822
규정	-11.2822
▁나뉘어	-11.2822
▁기아차	-11.2823
▁쉐	-11.2823
▁동원해	-11.2826
나이	-11.2827
▁1985	-11.283
▁매도	-11.283
파리	-11.283
▁목표가	-11.283
▁브라우저	-11.2831
▁구조개혁	-11.2832
명씩	-11.2832
▁주된	-11.2832
▁주도하는	-11.2833
드로	-11.2833
가며	-11.2833
지역의	-11.2834
▁원활한	-11.2834
▁고집	-11.2835
▁있었다는	-11.2836
▁전체가	-11.2836
버리고	-11.2837
▁원고	-11.2837
▁포트	-11.2838
▁것이죠	-11.2838
▁국민적	-11.2838
갯	-11.284
청에서	-11.2841
▁없지	-11.2841
NA	-11.2841
2013	-11.2842
시다	-11.2842
▁실효성	-11.2843
▁글이	-11.2845
▁이준	-11.2846
▁비치	-11.2847
곰	-11.2847
시께	-11.2847
▁뭉	-11.2851
음료	-11.2851
홍보	-11.2851
▁전형적인	-11.2852
▁이벤트가	-11.2852
▁피고인	-11.2852
낮	-11.2853
고속	-11.2853
▁구리	-11.2853
▁발족	-11.2856
▁좁은	-11.2858
▁담배를	-11.2859
씬	-11.286
▁어렵고	-11.2862
▁본회의장에서	-11.2862
차전	-11.2865
ee	-11.2867
▁오버워치	-11.2867
▁대성	-11.2868
▁같은데	-11.2869
정보통신	-11.2869
쩍	-11.2869
▁부근	-11.287
▁선진	-11.2871
▁펼치는	-11.2872
숍	-11.2873
박한	-11.2876
재판	-11.2876
▁홍성	-11.2877
▁영주	-11.2878
▁논의하고	-11.2879
시켜야	-11.2879
▁하얀	-11.2879
▁반기문	-11.2883
주세요	-11.2884
습니까	-11.2885
▁창조경제혁신센터	-11.2886
▁챌린지	-11.2887
▁찍고	-11.2887
▁쪽에	-11.2888
▁낙찰	-11.2888
티아	-11.2889
▁당사에서	-11.289
과정을	-11.289
전으로	-11.2891
▁프렌즈	-11.2892
으론	-11.2893
▁전국에	-11.2894
▁학부모들	-11.2895
▁전에는	-11.2896
▁댓글을	-11.2897
▁정유	-11.2897
▁개최하고	-11.2897
▁공적	-11.2898
▁명칭	-11.2898
채권	-11.2899
된다면	-11.29
선은	-11.2902
결합	-11.2903
▁보이지만	-11.2903
▁받았던	-11.2904
▁죽을	-11.2905
▁날인	-11.2905
▁낮춰	-11.2905
▁다니	-11.2906
▁정문	-11.2908
▁96	-11.2909
▁신촌	-11.291
콧	-11.291
▁지역별	-11.2912
▁읍	-11.2912
▁되었으며	-11.2912
▁DJ	-11.2913
▁아닐까	-11.2913
시오	-11.2914
▁83	-11.2915
겼	-11.2916
바라	-11.2918
▁높아질	-11.2919
▁공유할	-11.2919
▁위해서다	-11.2919
▁비상대책위원회	-11.2919
정책을	-11.292
▁번의	-11.292
심리	-11.292
▁서브	-11.2922
▁트렌드를	-11.2922
▁감수	-11.2923
확대	-11.2923
▁따져	-11.2924
AM	-11.2926
ab	-11.2927
페어	-11.2928
▁강화에	-11.2929
▁능력치	-11.2929
심에서	-11.293
▁어플리케이션	-11.293
▁실제로는	-11.293
▁싶다고	-11.2931
▁나누	-11.2932
▁공방	-11.2932
▁무덤	-11.2934
▁환불	-11.2935
▁다가	-11.2936
▁원에	-11.2936
▁법령	-11.2936
▁과시	-11.2937
▁조용	-11.294
▁쾌적한	-11.2941
질이	-11.2941
▁대변	-11.2941
▁가능하다는	-11.2943
▁아무것도	-11.2943
▁밖에서	-11.2944
▁김준	-11.2944
화한	-11.2945
스테	-11.2945
math	-11.2946
▁크리	-11.2947
▁킬	-11.2947
▁통과한	-11.2948
▁소금	-11.2948
▁월간	-11.2949
농업	-11.2949
▁기온	-11.295
▁체결하고	-11.295
본부장은	-11.2951
▁방출	-11.2954
▁절약	-11.2954
▁슬로건	-11.2956
▁가리킨다	-11.2956
▁시장점유율	-11.2957
▁사용을	-11.2958
▁내기	-11.2958
▁다를	-11.2961
▁검정	-11.2961
▁원소	-11.2962
▁지나지	-11.2963
▁기록해	-11.2964
업종	-11.2966
▁브루	-11.2968
▁협상이	-11.297
▁오토바이	-11.297
▁강력히	-11.2971
▁경험과	-11.2974
▁만만치	-11.2975
▁고기	-11.2975
▁요금을	-11.2975
▁나이트	-11.2975
관에	-11.2976
▁그러자	-11.2976
▁임시국회	-11.2977
▁관리가	-11.2978
▁신한	-11.2979
▁앞장서	-11.298
▁파생	-11.2981
▁멘토링	-11.2982
▁환급	-11.2984
▁조화	-11.2987
▁사업비	-11.2987
▁흰색	-11.299
▁종사자	-11.2991
쑤	-11.2993
▁결과로	-11.2993
▁크로	-11.2993
▁이경	-11.2997
▁과징금	-11.2997
▁배터리를	-11.2997
내용	-11.3
▁종가	-11.3001
▁아버지는	-11.3001
▁낳	-11.3002
▁최강	-11.3002
▁뉴질랜드	-11.3002
부지	-11.3005
주기를	-11.3005
▁주장에	-11.3007
검색	-11.3009
▁128	-11.3009
ba	-11.301
▁하시	-11.301
리기	-11.301
▁체질	-11.3012
▁육박	-11.3013
BM	-11.3014
섰	-11.3015
▁중기	-11.3016
▁바라보는	-11.3017
▁공간으로	-11.3017
지면	-11.3018
▁출품	-11.3019
▁헤럴드	-11.3019
▁발명	-11.302
▁단통법	-11.3021
▁유서	-11.3022
▁역임했다	-11.3022
상가	-11.3023
▁한겨레신문사	-11.3023
▁엉	-11.3024
▁일부는	-11.3026
▁오대일	-11.3028
ub	-11.3029
sh	-11.3029
da	-11.3029
▁직원들의	-11.303
▁치즈	-11.3032
▁대공	-11.3032
심이	-11.3033
▁들어와	-11.3035
▁브리핑에서	-11.3035
브로	-11.3036
▁잉	-11.3037
▁영남	-11.3037
▁활성화에	-11.3039
▁적의	-11.304
▁선수로	-11.304
▁그룹의	-11.3041
소가	-11.3042
ys	-11.3042
▁색다른	-11.3042
인터뷰	-11.3042
▁신경을	-11.3042
컴퍼니	-11.3044
▁장사	-11.3044
▁파는	-11.3044
▁성장한	-11.3047
▁김창	-11.3047
▁의미하는	-11.3049
▁무척	-11.3049
▁중장기	-11.3051
▁시리즈는	-11.3052
▁일선	-11.3052
▁헝그리앱은	-11.3052
▁가죽	-11.3053
소연	-11.3054
▁계기	-11.3055
사항을	-11.3056
▁핀란드	-11.3056
도르	-11.3056
▁늘릴	-11.3056
컴퓨터	-11.3056
▁ELS	-11.3058
▁결정한	-11.3058
결혼	-11.3059
▁시간대	-11.3059
cc	-11.306
▁무거운	-11.3062
형은	-11.3063
▁돼서	-11.3064
▁공백	-11.3064
▁기각	-11.3065
자로서	-11.3066
체육	-11.3067
▁이윤	-11.3067
▁광장에서	-11.3068
▁푸드	-11.3068
으로서는	-11.307
RE	-11.307
TF	-11.3075
▁버그	-11.3077
▁토크	-11.3077
▁만성	-11.3078
▁기준에	-11.3079
▁보너스	-11.3079
ip	-11.308
▁2500	-11.3082
(1	-11.3083
▁이로	-11.3083
▁지붕	-11.3084
▁텐센트	-11.3084
▁브라운	-11.3085
▁미래의	-11.3085
▁투기	-11.3085
▁명확히	-11.3085
▁압도적인	-11.3087
▁신동	-11.3087
▁만다	-11.3087
▁자리가	-11.3087
▁사람으로	-11.3088
리즘	-11.309
형태	-11.309
▁식의	-11.3092
▁집중할	-11.3095
▁비율을	-11.3097
▁기대감을	-11.3097
▁세련된	-11.3098
▁당첨	-11.3098
▁취미	-11.3098
▁내리고	-11.3099
▁가정의	-11.3099
▁질의에	-11.3101
EU	-11.3101
▁안양	-11.3104
▁두려워	-11.3106
PI	-11.3107
유리	-11.3107
신경	-11.3108
▁영등포	-11.3109
▁지지율이	-11.3109
▁헐	-11.3109
▁적용되는	-11.311
▁늦은	-11.3111
▁방송된	-11.3111
모리	-11.3112
▁관리할	-11.3113
▁디렉터	-11.3115
슬라	-11.3118
▁밤에	-11.3118
▁제목의	-11.3119
▁나오면	-11.3121
령을	-11.3121
위인	-11.3121
▁자유로운	-11.3122
겨레는	-11.3123
▁대상에	-11.3123
▁Copyrigh	-11.3123
▁떨어지	-11.3124
▁원인은	-11.3124
▁터널	-11.3126
▁액체	-11.3126
▁세종뉴시스	-11.3127
재를	-11.3127
감과	-11.3128
▁미션을	-11.3131
처를	-11.3132
▁툴	-11.3132
▁바람을	-11.3135
▁로또	-11.3135
치로	-11.3136
▁데는	-11.3137
▁넓혀	-11.3137
▁맺은	-11.3137
▁하우스	-11.3138
▁호소했다	-11.3138
▁예매	-11.3139
▁열기	-11.314
으니까	-11.3141
▁체코	-11.3142
▁신뢰성	-11.3143
▁가져가	-11.3143
펀	-11.3143
▁내세워	-11.3143
▁지원금을	-11.3144
▁소개한다	-11.3147
▁그해	-11.3147
▁심각	-11.3148
신용	-11.315
▁등장인물	-11.3152
▁공장을	-11.3153
▁체계적인	-11.3155
▁적다	-11.3156
▁거래량	-11.3156
테라	-11.3158
ome	-11.3158
▁동대문	-11.3158
식물	-11.3159
▁발언이	-11.3159
▁유전	-11.3159
▁여당이	-11.316
▁중간에	-11.3161
▁대출을	-11.3162
론은	-11.3162
▁금품을	-11.3163
▁승차	-11.3163
▁공관위	-11.3163
▁농림축산식품부	-11.3164
▁빼앗	-11.3164
▁그림자	-11.3164
허브	-11.3165
ER	-11.3166
약을	-11.3169
선으로	-11.3169
▁대표단	-11.317
▁기다리	-11.317
▁저지른	-11.3171
▁보도자료	-11.3172
막이	-11.3172
▁이재명	-11.3173
▁참조	-11.3174
▁이태	-11.3174
과제	-11.3175
▁온라인이슈팀	-11.3175
▁권역별	-11.3175
▁게임업계	-11.3175
▁크다고	-11.3175
▁금액을	-11.3176
▁의사가	-11.3177
▁정세	-11.3178
▁먹이	-11.3178
▁go	-11.3178
▁딜러	-11.3179
▁외래	-11.3179
▁이룬	-11.3179
▁노벨	-11.3179
▁VIP	-11.3179
▁시청자들	-11.3179
▁이끈	-11.3181
숭	-11.3181
▁보육교사	-11.3182
▁되돌아	-11.3182
▁주시	-11.3182
▁고조	-11.3183
▁쫓아	-11.3183
▁비유	-11.3183
▁주먹	-11.3185
▁제공되는	-11.3186
▁달에	-11.3186
▁호출	-11.3187
▁대학의	-11.3187
▁협의회	-11.3188
▁스승	-11.319
▁마사	-11.319
▁선정했다	-11.319
▁눈으로	-11.3191
금융지주	-11.3192
났	-11.3193
▁폭염	-11.3193
▁연령대	-11.3194
▁올라오	-11.3196
▁공헌	-11.3196
▁떨어질	-11.3198
bi	-11.32
창조경제혁신센터	-11.3201
컷	-11.3201
히고	-11.3202
▁힘으로	-11.3203
▁중점	-11.3203
▁시민의	-11.3203
▁탄탄한	-11.3205
▁텔레	-11.3205
▁반도	-11.3207
▁메뉴를	-11.3208
위기	-11.3208
▁캠핑	-11.3208
성분	-11.321
수원	-11.321
▁자신감을	-11.3211
▁반환	-11.3211
......	-11.3212
▁강조하는	-11.3212
▁해결하는	-11.3212
▁쌍용차	-11.3212
▁등산	-11.3214
▁특징은	-11.3214
ou	-11.3215
▁국가들	-11.3216
▁촉	-11.3217
▁스피	-11.3218
▁의원총회	-11.3218
가능	-11.3218
▁대북제재	-11.322
지부	-11.322
▁협약식	-11.3221
▁힐링	-11.3222
▁오렌지	-11.3222
▁높다고	-11.3223
▁아프	-11.3223
▁문구	-11.3225
▁보여줬다	-11.3225
▁한방	-11.3225
II	-11.3226
hy	-11.3227
bo	-11.3227
▁장벽	-11.3227
▁롯데리아	-11.3228
▁종식	-11.3228
▁시급	-11.323
▁손실을	-11.323
당했다	-11.3231
▁곰	-11.3231
▁취재기자	-11.3232
▁외출	-11.3232
윤희	-11.3235
량의	-11.3236
▁응답자	-11.3236
▁진도	-11.3237
▁관세	-11.3238
▁토너먼트	-11.3238
수행	-11.3239
음식	-11.324
▁찾아볼	-11.324
▁머신러닝	-11.3241
▁앞으로는	-11.3242
▁일시	-11.3242
봉사	-11.3243
협회는	-11.3243
▁직권상정	-11.3244
▁마시고	-11.3245
▁결합해	-11.3247
▁밀어	-11.3247
처분	-11.3248
▁의자	-11.3249
▁질량	-11.3249
받지	-11.3249
▁연구가	-11.3249
▁일본과	-11.3249
▁뺑소니	-11.325
▁인근에서	-11.325
▁뷰	-11.3252
▁플레	-11.3252
▁들어오는	-11.3253
▁요청을	-11.3253
▁받았	-11.3255
▁진압	-11.3255
버린다	-11.3256
▁확보에	-11.3256
▁이해를	-11.3256
되게	-11.3257
▁장관을	-11.3261
▁부위원장	-11.3261
▁피부를	-11.3261
▁세수	-11.3263
▁속에서도	-11.3263
▁일부가	-11.3263
▁분야는	-11.3264
▁책은	-11.3264
▁모스크바	-11.3264
▁체인	-11.3265
▁1986	-11.3266
▁입문	-11.3267
한데	-11.3267
▁배우이다	-11.3267
▁나라가	-11.3267
▁선수들이	-11.3268
▁이해하고	-11.3269
▁장관의	-11.327
▁라인업을	-11.327
이에요	-11.3272
▁전형	-11.3273
스팅	-11.3273
▁동작구	-11.3273
졌던	-11.3274
▁씻	-11.3275
▁해결책	-11.3276
▁네이버가	-11.3278
▁됐고	-11.3279
▁대응하기	-11.3279
▁취지로	-11.328
▁전수	-11.3284
▁1984	-11.3285
이었다고	-11.3285
▁좋	-11.3285
간에	-11.3285
▁정권의	-11.3285
▁상황입니다	-11.3287
▁재미있는	-11.3288
멘트	-11.3288
▁구매자	-11.3289
▁험	-11.3291
▁스님	-11.3291
▁환승	-11.3291
▁생각은	-11.3295
▁퍼포먼스	-11.3295
▁지난해보다	-11.3296
▁화해	-11.3297
ure	-11.3298
ES	-11.3301
▁주부	-11.3302
▁헬스	-11.3302
▁이승만	-11.3303
▁귀족	-11.3305
▁서울뉴시스박주	-11.3305
▁인정받아	-11.3305
▁미세	-11.3305
▁동아시아	-11.3306
계약을	-11.3308
▁참가했다	-11.3308
▁개최되는	-11.3308
▁채취	-11.3309
▁보게	-11.3309
체의	-11.3311
▁동결	-11.3314
▁잘라	-11.3316
비로	-11.3317
▁수사가	-11.3317
▁막말	-11.332
▁확대한다	-11.332
▁특집	-11.332
▁있었을	-11.3321
▁위대한	-11.3321
▁느끼	-11.3322
▁순식간에	-11.3323
▁의외로	-11.3325
곡동	-11.3326
▁스피드	-11.3327
▁진실을	-11.3328
▁부스를	-11.3328
▁97	-11.3328
▁여인	-11.333
▁구두	-11.3333
▁마이클	-11.3333
▁토익	-11.3333
▁알지	-11.3335
▁선택하는	-11.3336
▁대사는	-11.3337
▁실어	-11.3337
이용	-11.3338
▁기습	-11.3338
▁급식	-11.3339
▁그와	-11.3339
이었으며	-11.334
▁신선한	-11.334
▁투자해	-11.3341
▁확실	-11.3342
개동	-11.3342
▁해명했다	-11.3344
▁후퇴	-11.3345
▁퍼지	-11.3345
▁0.2	-11.3346
이죠	-11.3346
▁임금피크제	-11.3346
▁중이던	-11.3347
▁않나	-11.3348
▁할부	-11.3349
▁남아있	-11.3349
주와	-11.3349
홀딩스	-11.3351
▁많았고	-11.3352
▁연말까지	-11.3352
▁식량	-11.3352
▁중심에	-11.3353
▁새끼	-11.3353
MO	-11.3353
▁팔리	-11.3354
▁우체국	-11.3355
▁밴	-11.3355
▁관악구	-11.3356
▁둘러싸고	-11.3358
▁증폭	-11.3359
▁팀은	-11.336
▁국회의장이	-11.336
▁주장한	-11.3363
▁가지는	-11.3366
화로	-11.3368
세종	-11.3368
▁퀴즈	-11.337
▁나가고	-11.337
▁보컬	-11.3371
▁브리핑	-11.3371
▁나누는	-11.3371
▁불과했다	-11.3373
▁상관	-11.3374
샷	-11.3376
Mbps	-11.3377
▁감독은	-11.3377
▁화석	-11.3379
드라마	-11.338
▁기대감	-11.338
▁아크	-11.3381
doga	-11.3382
(?)	-11.3384
▁가이드라인	-11.3384
▁팬택	-11.3385
▁스파	-11.3387
류를	-11.3388
▁최고치	-11.339
▁넣은	-11.339
▁좀비	-11.3391
▁분자	-11.3391
클래스	-11.3393
▁울산연합뉴스	-11.3394
▁영문	-11.3394
▁풀리	-11.3394
▁용인시	-11.3395
▁눌러	-11.3395
▁교수의	-11.3396
아이폰	-11.3397
▁출시된다	-11.3402
▁중형	-11.3402
▁양사	-11.3403
▁다해	-11.3403
등이	-11.3406
왕의	-11.3408
기존	-11.3408
▁시상	-11.3411
▁여건	-11.3411
▁점프	-11.3411
▁재임	-11.3412
▁4·29	-11.3415
▁콘텐츠로	-11.3415
▁선정한	-11.3418
▁안되는	-11.3418
준호	-11.3418
함은	-11.3422
변경	-11.3422
리터	-11.3422
▁조건이	-11.3423
▁정계	-11.3423
▁출퇴근	-11.3423
▁미래에	-11.3424
{	-11.3425
▁더이상	-11.3427
▁핸드	-11.3428
▁로그인	-11.3429
시기	-11.3429
▁페이스북에	-11.343
▁배경을	-11.343
부동산	-11.3431
▁문제다	-11.3431
eo	-11.3432
▁결단	-11.3433
▁이용객	-11.3433
▁본체	-11.3433
▁장시간	-11.3433
▁열대	-11.3433
수출	-11.3434
▁착륙	-11.3434
▁학생들	-11.3435
서울연합뉴스	-11.3435
▁리얼	-11.3435
▁현실적으로	-11.3436
▁안정적	-11.3437
▁분단	-11.3437
▁사망했다	-11.3438
▁사원	-11.3438
▁않아서	-11.3438
▁전달할	-11.3439
▁나눈	-11.3441
테스트	-11.3442
▁주사	-11.3443
▁악수를	-11.3444
▁뱃	-11.3444
▁맡게	-11.3447
▁어머니는	-11.3447
▁깨끗한	-11.3448
▁인수한	-11.345
목표	-11.3451
엔터	-11.3451
▁당연한	-11.3454
▁간판	-11.3455
▁피아노	-11.3457
▁났	-11.3458
▁신비	-11.3459
ent	-11.3459
▁공고	-11.3461
▁내구성	-11.3463
태평양	-11.3464
▁지정되었다	-11.3464
▁이슈가	-11.3465
▁x	-11.3465
▁국민들	-11.3465
▁낭비	-11.3466
▁분석도	-11.3467
▁피자	-11.3468
▁똑같이	-11.3469
질서	-11.3469
▁축사를	-11.347
▁민간인	-11.347
학을	-11.3471
▁제기된	-11.3471
▁초대형	-11.3471
▁상해	-11.3473
▁사건과	-11.3473
프로젝트	-11.3473
▁발생하고	-11.3474
▁보호를	-11.3475
▁같았다	-11.3476
크림	-11.3476
▁제도가	-11.3477
▁이재용	-11.3478
▁유산	-11.3479
고용	-11.3479
▁했다며	-11.348
▁개량	-11.348
▁도발을	-11.3481
▁학자	-11.3484
장인	-11.3484
▁어플	-11.3485
▁교장	-11.3485
▁목적이	-11.3486
▁근처에	-11.3487
OO	-11.3489
▁의료기기	-11.3491
노동자	-11.3492
▁의장이	-11.3492
▁천체	-11.3492
▁사자	-11.3494
부르크	-11.3495
▁범행을	-11.3496
▁소독	-11.3497
▁투자하는	-11.3498
종은	-11.3498
▁에이스	-11.3499
▁대수	-11.35
깃	-11.35
▁연구결과	-11.3501
▁350	-11.3502
▁중점을	-11.3504
▁0.3	-11.3506
8.1	-11.3506
pb	-11.3507
▁누리꾼들은	-11.3508
▁레이븐	-11.3509
▁당했다	-11.351
다보니	-11.351
범위	-11.351
der	-11.351
▁서울시가	-11.3511
▁소프트	-11.3512
EX	-11.3513
▁언니	-11.3514
▁램	-11.3514
▁고백	-11.3515
▁엘리	-11.3516
▁침묵	-11.3516
▁이틀간	-11.3518
▁일로	-11.3519
▁나타내	-11.352
▁편하게	-11.3521
▁될지	-11.3521
▁결집	-11.3521
▁82	-11.3521
▁최고위원회의	-11.3523
▁겨울철	-11.3523
▁유럽의	-11.3524
스로	-11.3524
제에	-11.3525
▁섹시	-11.3527
롭	-11.3527
▁장난감	-11.3527
▁코딩	-11.3527
▁시험을	-11.3529
▁왕복	-11.3529
▁감상할	-11.353
▁수수	-11.353
▁달간	-11.353
위안	-11.3533
금은	-11.3534
셨다	-11.3536
▁종합적으로	-11.3536
▁컸	-11.3537
▁용도로	-11.3537
▁영역에서	-11.3538
1.5	-11.3538
▁임대료	-11.354
▁관절	-11.3541
민주당	-11.3541
▁명확한	-11.3542
▁음향	-11.3543
▁조영	-11.3545
▁것들을	-11.3545
▁수영	-11.3545
▁나섰습니다	-11.3546
▁움	-11.3548
▁보충	-11.3548
▁알렸다	-11.3548
▁교수와	-11.3549
▁드러난	-11.355
공화국	-11.3551
▁늘면서	-11.3551
▁넘어선	-11.3552
▁연안	-11.3552
화는	-11.3552
피해	-11.3553
▁상품들을	-11.3553
▁채권단	-11.3554
▁그녀를	-11.3554
▁무사	-11.3554
▁윌	-11.3555
청장	-11.3557
▁얻게	-11.3557
▁영동	-11.3558
▁호응	-11.356
▁미국에	-11.3561
our	-11.3564
▁중개	-11.3566
▁속초	-11.3566
전남	-11.3567
▁정복	-11.357
▁주가는	-11.357
ME	-11.357
▁회의실에서	-11.3571
▁법칙	-11.3571
▁제작사	-11.3572
▁park	-11.3572
▁이렇다	-11.3572
성능	-11.3573
오고	-11.3575
▁신호를	-11.3575
▁방침입니다	-11.3576
▁동지	-11.3577
▁중고차	-11.3577
▁센서를	-11.3578
▁잭	-11.3579
▁긍정적으로	-11.3581
▁거다	-11.3582
▁물갈이	-11.3585
포털	-11.3587
DS	-11.3589
▁관계에	-11.3593
▁평면	-11.3593
▁소주	-11.3593
▁금전적	-11.3594
파의	-11.3596
▁상속	-11.3597
▁대표팀	-11.3597
말을	-11.3598
▁법안이	-11.3598
▁정체성	-11.3599
▁박정호	-11.36
▁중심이	-11.36
▁예상됩니다	-11.3602
▁재능	-11.3603
▁시속	-11.3603
▁겪은	-11.3604
▁육상	-11.3605
생물	-11.3606
▁차량의	-11.3606
우드	-11.3607
▁1.7	-11.3607
▁피부에	-11.3609
웹	-11.3609
▁열쇠	-11.361
▁감면	-11.3611
▁단계에서	-11.3612
▁거래가	-11.3613
▁산불	-11.3616
▁국가대표팀	-11.3618
렸	-11.3619
▁1600	-11.3619
▁사회가	-11.362
▁이상한	-11.3621
女	-11.3622
▁요건	-11.3622
▁Pro	-11.3623
▁계속되고	-11.3625
▁시스템과	-11.3626
▁후속작	-11.3626
▁식사를	-11.3627
▁텃밭	-11.3628
현황	-11.3628
뤼	-11.3629
청은	-11.363
▁달라진	-11.3631
▁81	-11.3631
▁신앙	-11.3632
▁초기에	-11.3635
▁탈북	-11.3636
▁사무실에서	-11.3636
▁땅을	-11.3637
▁인건비	-11.3637
▁월요일	-11.3637
티드	-11.364
▁표지	-11.364
▁퓨	-11.3643
▁붙은	-11.3643
▁벨기에	-11.3644
▁관련이	-11.3645
▁배분	-11.3647
▁온실가스	-11.3647
▁모두에게	-11.3648
▁기점으로	-11.3649
▁않겠다고	-11.3649
딕	-11.365
▁집합	-11.365
▁갖	-11.3651
▁씨와	-11.3651
▁조선중앙	-11.3654
▁읽고	-11.3654
▁불과한	-11.3654
▁업무에	-11.3655
▁기대감이	-11.3656
▁주름	-11.3657
▁고려할	-11.3659
▁수료	-11.366
▁금융위원회	-11.3661
▁여왕	-11.3661
▁시스템으로	-11.3661
BC	-11.3661
▁폭으로	-11.3662
▁마트	-11.3662
▁연구는	-11.3662
배로	-11.3663
▁요약	-11.3664
▁전략이	-11.3667
▁만들어졌다	-11.3667
▁품질을	-11.3668
▁않는다면	-11.3668
▁공세	-11.367
}	-11.3672
FTA	-11.3672
▁박재홍	-11.3673
▁입체	-11.3674
력은	-11.3675
▁대학원	-11.3675
▁신뢰도	-11.3677
▁71	-11.368
▁다리를	-11.368
술을	-11.3682
협회장	-11.3683
▁통증	-11.3683
▁국가정보원	-11.3684
▁중대	-11.3685
▁조성을	-11.3685
▁홍해	-11.3687
효과를	-11.369
▁사육	-11.3691
▁인사들이	-11.3692
▁전문의	-11.3692
▁효율	-11.3694
▁관제	-11.3695
▁열흘	-11.3695
▁심해	-11.3696
▁행태	-11.3696
▁싫어	-11.3697
▁게시	-11.3698
▁크루	-11.3698
▁입시	-11.3699
▁중재	-11.3701
▁라이벌	-11.3702
ca	-11.3702
▁실리콘밸리	-11.3702
▁마다	-11.3703
▁이하로	-11.3703
적으로는	-11.3705
▁거짓말	-11.3706
▁예상하고	-11.3706
▁강화한	-11.3706
▁헝그리앱에서	-11.3706
▁구원	-11.3707
▁안쪽	-11.3709
▁전면에	-11.3709
▁알려주는	-11.3709
▁불만이	-11.3711
ta	-11.3712
▁시리아	-11.3713
▁속한	-11.3713
보도	-11.3714
▁들어서고	-11.3714
▁감행	-11.3715
▁과학적	-11.3715
▁시중	-11.3716
ide	-11.3716
주차	-11.3716
▁용서	-11.3717
방에서	-11.3718
▁있겠다	-11.3719
▁시민이	-11.372
▁좋다고	-11.372
히트	-11.3721
▁명명	-11.3721
▁놀라운	-11.3721
내가	-11.3723
▁받아들일	-11.3724
▁단점	-11.3725
▁개인적으로	-11.3725
▁반격	-11.3725
▁황광	-11.3726
부인	-11.3726
▁선거법	-11.3726
▁대사관	-11.3728
▁대회에	-11.3728
▁따지	-11.3731
▁각기	-11.3732
▁멈	-11.3732
▁중저가	-11.3733
새정치민주연합	-11.3734
▁허가를	-11.3734
▁크롬	-11.3735
▁밀양	-11.3735
▁본관	-11.3737
비치	-11.3737
▁101	-11.3737
▁나섰	-11.3738
em	-11.374
▁성장하고	-11.374
▁관계자가	-11.374
▁조희연	-11.3741
KI	-11.3742
▁바르셀로나	-11.3743
μ	-11.3743
큼	-11.3744
▁실감	-11.3744
▁침공	-11.3746
▁파악할	-11.3748
▁게임빌	-11.3749
증이	-11.3751
▁판매하고	-11.3752
NI	-11.3753
▁산업을	-11.3755
▁김현아	-11.3756
▁의미에서	-11.3756
▁작곡가	-11.3757
▁외교장관	-11.3757
▁쥬	-11.3758
▁간섭	-11.3761
로이드	-11.3761
▁국방장관	-11.3762
▁수호	-11.3764
ET	-11.3765
군사	-11.3765
▁예산이	-11.3765
▁로즈	-11.3766
로그	-11.3767
▁모션	-11.3768
무선	-11.3769
▁보정	-11.3771
lie	-11.3772
팩트	-11.3772
▁여부가	-11.3772
▁아레나	-11.3773
▁애정	-11.3773
▁코레일	-11.3774
▁당무	-11.3775
▁중견	-11.3775
▁제치고	-11.3776
타를	-11.3778
▁공단	-11.3779
▁단편	-11.378
▁마법사	-11.378
▁1945	-11.378
▁판단해	-11.3781
▁인명	-11.3781
▁한정판	-11.3781
▁성장동력	-11.3783
▁목표는	-11.3783
▁랜	-11.3783
아버지	-11.3785
유니	-11.3786
▁던진	-11.3786
▁노키아	-11.3787
▁관광객이	-11.3788
▁금호	-11.3788
기간이	-11.3789
▁죽음을	-11.3789
▁형편	-11.3789
쿄	-11.379
곡을	-11.3791
▁전문성	-11.3792
▁행적	-11.3794
▁리듬	-11.3794
▁함대	-11.3794
▁유네스코	-11.3796
▁한국노총	-11.3799
▁중국을	-11.3801
워치	-11.3801
다른	-11.3804
▁나왔	-11.3804
▁오디션	-11.3806
▁강화한다	-11.3807
▁호흡	-11.3807
뮤	-11.3809
캡	-11.3811
▁주고받	-11.3812
어진	-11.3813
OC	-11.3815
활성화	-11.3816
▁보았다	-11.3816
▁셋	-11.3817
만대를	-11.3817
▁차종	-11.3817
▁자매	-11.3817
▁동료들	-11.3819
했다가	-11.3819
▁전했습니다	-11.382
▁대회는	-11.3821
▁어릴	-11.3822
▁쉴	-11.3822
▁방화	-11.3822
▁도입된	-11.3823
▁끝나는	-11.3824
▁집중하고	-11.3824
·3	-11.3825
▁드디어	-11.3826
▁다행	-11.3827
▁대박	-11.3827
라이브	-11.3828
▁Ch	-11.3829
▁카드사	-11.3829
사진을	-11.383
▁km	-11.3831
▁부임	-11.3831
▁감기	-11.3831
▁패턴을	-11.3832
하시는	-11.3833
▁군주	-11.3834
먹는	-11.3835
▁무게를	-11.3835
▁샘	-11.3836
사격	-11.3837
▁여당의	-11.3837
▁방문했다	-11.3839
▁업체와	-11.384
▁원조	-11.384
▁돕고	-11.3841
▁바꾸고	-11.3842
▁사회복지	-11.3843
▁건물을	-11.3845
▁의사결정	-11.3845
▁셰프	-11.3846
▁정무	-11.3846
▁라면	-11.3847
▁농구	-11.3847
▁싶지	-11.3848
▁서산	-11.3848
▁지은	-11.3849
▁세우	-11.3849
▁적용하는	-11.3849
지방법원	-11.3849
▁알리기	-11.385
▁외환	-11.385
▁즉위	-11.3851
▁취향	-11.3852
▁메디	-11.3853
▁업체의	-11.3853
▁멋진	-11.3855
▁넷	-11.3857
▁무기를	-11.3857
▁시체	-11.386
▁효능	-11.386
▁몰고	-11.3861
웍스	-11.3861
▁보편적	-11.3862
▁이모티콘	-11.3862
▁장남	-11.3862
▁키우	-11.3863
▁개정안은	-11.3864
▁SSD	-11.3865
촬영	-11.3865
▁한눈에	-11.3866
막을	-11.3866
▁실린	-11.3867
▁동해안	-11.3867
탄을	-11.3868
▁웰	-11.3869
폭력	-11.3871
▁베를린	-11.3872
과장	-11.3873
▁아이의	-11.3873
▁해지	-11.3873
rea	-11.3873
▁2015.04.0	-11.3875
▁2015.06.1	-11.3875
▁우윤근	-11.3875
▁상징하는	-11.3875
▁협의체	-11.3876
▁고구려	-11.3878
▁초당	-11.3878
진료	-11.3881
카드를	-11.3882
▁창문	-11.3882
품질	-11.3883
기압	-11.3885
▁욕	-11.3886
▁블레이드	-11.3887
▁업무보고	-11.3888
▁자신만의	-11.3888
▁추가됐다	-11.3888
▁이번엔	-11.3889
▁끄는	-11.3889
어링	-11.3891
▁들었	-11.3891
토스	-11.3892
▁디즈니	-11.3893
▁크리에이터	-11.3893
라이프	-11.3894
▁참여자	-11.3896
▁나가겠다	-11.3897
▁서울시장이	-11.3897
연료	-11.3897
전지	-11.3898
▁기관은	-11.39
▁시켜	-11.3902
▁매칭	-11.3905
▁본인은	-11.3906
▁포함되어	-11.3909
▁기득권	-11.3909
▁나오기	-11.3909
▁노화	-11.391
▁뒤에는	-11.3911
인으로	-11.3912
▁브레	-11.3913
▁창고	-11.3913
▁파크	-11.3914
기간을	-11.3914
▁사막	-11.3915
▁이르렀다	-11.3916
▁배제할	-11.3916
▁대전연합뉴스	-11.3917
걸음	-11.3918
▁기상청은	-11.3918
커머스	-11.3919
▁나지	-11.3919
▁1.6	-11.3921
▁가입한	-11.3922
▁다르	-11.3922
연장	-11.3922
공원에서	-11.3922
▁저렴하게	-11.3922
▁무너지	-11.3922
이후	-11.3924
▁기법	-11.3926
당을	-11.3927
▁전락	-11.3928
사전	-11.3929
문의	-11.3929
▁특징이	-11.393
▁92	-11.3931
쪽으로	-11.3933
▁이용이	-11.3934
▁활발히	-11.3935
팍	-11.3936
▁협력업체	-11.3936
▁주도권을	-11.3938
▁쫓	-11.3939
▁분명한	-11.3939
▁강제로	-11.394
▁쿡	-11.394
RS	-11.3941
▁워크	-11.3941
▁바닥에	-11.3942
▁챔피언십	-11.3944
▁사인	-11.3944
▁화제	-11.3944
▁중지	-11.3945
▁안착	-11.3945
▁창구	-11.3946
넛	-11.3946
▁유죄	-11.3947
▁전무는	-11.3947
▁봉인	-11.3948
▁확산되고	-11.395
의학	-11.395
▁인격	-11.3951
▁과세	-11.3953
▁옥상	-11.3953
쟁	-11.3953
▁안정화	-11.3954
▁제공한	-11.3954
▁인기화	-11.3956
▁자세를	-11.3957
▁인사하고	-11.3957
▁줄어	-11.3958
▁증정하는	-11.3958
▁반영된	-11.3959
▁강연을	-11.396
▁독자적인	-11.3961
▁대가로	-11.3962
▁부친	-11.3962
문제를	-11.3963
▁수입차	-11.3963
백화점	-11.3966
▁이천	-11.3966
▁써야	-11.3967
청사	-11.3968
억원대	-11.3972
였기	-11.3972
▁증설	-11.3973
▁아끼지	-11.3973
▁6·25	-11.3973
▁디자인이	-11.3973
궈	-11.3976
슴	-11.3977
▁퍼져	-11.3977
▁이목을	-11.3978
▁CBT	-11.3979
▁야기	-11.398
▁마비	-11.3982
▁프로듀서	-11.3982
벳	-11.3983
캐스트	-11.3983
▁졸업한	-11.3984
쟁이	-11.3984
▁효과도	-11.3984
▁우연히	-11.3985
시켰	-11.3986
▁많다는	-11.3986
▁북극	-11.3986
▁양질의	-11.3987
▁일상생활	-11.3989
▁어울리는	-11.399
▁우호	-11.399
▁절망	-11.399
블리	-11.3991
▁세계대전	-11.3991
▁추가해	-11.3991
▁말하며	-11.3994
▁통로	-11.3994
▁고화질	-11.3994
▁프로그래밍	-11.3995
▁지방선거	-11.3997
▁있어도	-11.3997
산을	-11.3997
▁무관	-11.3998
닛	-11.3998
▁강력하게	-11.3999
▁되겠다	-11.4
조를	-11.4001
▁함수	-11.4002
▁초기에는	-11.4002
여명을	-11.4003
▁목적을	-11.4003
▁캐논	-11.4003
층지상	-11.4003
▁해피	-11.4005
▁그다지	-11.4006
▁엉덩이	-11.4007
▁관장	-11.4007
▁루이	-11.4008
신호	-11.4008
▁스트	-11.4008
▁GDP	-11.4008
▁읽는	-11.4009
▁칭찬	-11.401
랐	-11.401
▁지나면	-11.4011
▁신조	-11.4011
▁있거나	-11.4013
▁신사업	-11.4013
▁돕는다	-11.4014
▁우정	-11.4015
건에	-11.4015
▁사들	-11.4016
▁철저하게	-11.4016
▁하천	-11.4016
박문호	-11.4017
▁매직	-11.4017
▁위법	-11.4019
▁공격이	-11.4019
▁가입자가	-11.4019
▁강하다	-11.4021
▁일부러	-11.4022
▁되기도	-11.4022
▁정부를	-11.4023
강원	-11.4023
▁돌아왔다	-11.4024
개인	-11.4025
▁계획은	-11.4026
★	-11.4027
대회를	-11.4028
▁양의	-11.4029
▁살포	-11.4029
▁멘	-11.4034
우고	-11.4034
▁끊이지	-11.4035
▁서울대학교	-11.4035
▁일체	-11.4036
수용	-11.4036
정부가	-11.4036
▁러시아의	-11.4038
사리	-11.4039
▁통신망	-11.4041
▁해경	-11.4041
대회에서	-11.4042
▁위협을	-11.4042
▁지고	-11.4044
았지만	-11.4045
▁교역	-11.4046
▁생명을	-11.4047
▁식별	-11.4047
▁공략을	-11.4048
▁안경	-11.4048
▁공학	-11.4048
▁약세	-11.4048
관으로	-11.4049
▁스파이	-11.4049
▁서울뉴시스김	-11.405
▁이상인	-11.4053
5%	-11.4055
돈을	-11.4055
▁칠레	-11.4055
▁용병	-11.4057
▁어둠	-11.4057
▁상승률	-11.4057
▁탄력	-11.4059
▁그중	-11.406
금이	-11.4061
▁상품이	-11.4061
▁중에서는	-11.4062
▁느낀다	-11.4064
▁분야로	-11.4065
운동을	-11.4065
▁없이도	-11.4066
▁때의	-11.4066
▁클라	-11.4068
▁조속히	-11.4068
▁지지도	-11.407
▁허락	-11.4071
▁판매량은	-11.4071
▁서든어택	-11.4071
ut	-11.4072
▁정선	-11.4072
▁일으킬	-11.4073
▁전국에서	-11.4077
▁세로	-11.4077
▁도는	-11.4078
▁순이익	-11.4079
▁초고	-11.4079
골드	-11.4079
▁일어났다	-11.408
▁가전제품	-11.408
▁중립	-11.408
▁어머니가	-11.408
▁사이트를	-11.4081
▁성격을	-11.4081
▁근거가	-11.4082
▁전진	-11.4082
▁데이비드	-11.4082
GM	-11.4083
됐으나	-11.4083
▁파주시	-11.4083
▁지배구조	-11.4084
▁적합	-11.4085
저스	-11.4085
임금	-11.4086
▁식약처	-11.4086
▁인질	-11.4086
역과	-11.4087
▁CNS	-11.4087
▁등장해	-11.4087
▁길에	-11.4088
▁보전	-11.4089
보스	-11.409
SS	-11.409
담을	-11.409
▁국민들에게	-11.409
▁원대	-11.4093
▁픽셀	-11.4094
▁나눌	-11.4094
됐는데	-11.4095
물량	-11.4096
▁이르	-11.4098
▁어르신	-11.4099
▁내부의	-11.4099
▁일이라고	-11.4099
▁아찔한	-11.41
▁성별	-11.4102
트럭	-11.4104
▁기여한	-11.4105
▁차이나	-11.4106
▁공격에	-11.4106
류의	-11.4107
▁가능합니다	-11.4108
광장	-11.4108
▁방면	-11.4109
라가	-11.411
▁전망치	-11.4112
▁신산업	-11.4113
첸	-11.4115
▁만찬	-11.4116
▁않았기	-11.4116
▁의원에게	-11.4117
▁행사로	-11.4117
▁빈곤	-11.4118
▁전경련	-11.4118
▁하려고	-11.4119
▁아침에	-11.4121
▁산업단지	-11.4122
▁진정성	-11.4123
▁다중	-11.4123
▁밝힐	-11.4124
▁●	-11.4124
시와	-11.4124
전시	-11.4125
▁살펴	-11.4125
정동	-11.4128
▁잇달아	-11.4129
▁긴밀한	-11.4129
▁심상정	-11.4129
▁가까워	-11.413
▁후보들	-11.4131
▁복지부	-11.4132
▁시일	-11.4134
▁총리와	-11.4134
▁우리나라가	-11.4136
▁근본	-11.4137
▁나뉜다	-11.4139
▁이용자들은	-11.414
타입	-11.4141
▁악재	-11.4142
▁안전관리	-11.4142
▁고객과	-11.4143
▁공정한	-11.4143
▁뛰어들	-11.4143
▁바이어	-11.4145
▁파이널	-11.4145
▁바위	-11.4147
네이	-11.4147
▁찰	-11.4147
파티	-11.4151
▁측에서	-11.4152
임대	-11.4152
▁남성은	-11.4152
▁덕에	-11.4153
▁즐거움을	-11.4155
비리	-11.4156
▁활발하게	-11.4156
▁남미	-11.4156
▁있겠지만	-11.4157
베스트	-11.4157
▁선고했다	-11.4157
▁관악을	-11.4159
▁한컴	-11.416
▁진출한	-11.416
▁삼성의	-11.4161
▁슈팅	-11.4162
▁다양성	-11.4164
▁선수단	-11.4164
▁런칭	-11.4166
▁복잡	-11.4167
▁답을	-11.4167
▁양대	-11.4169
노인	-11.4172
▁개최한다고	-11.4173
▁93	-11.4173
일수록	-11.4174
▁휠	-11.4175
▁대세	-11.4175
▁여가	-11.4176
▁보급형	-11.4179
▁디스크	-11.4181
벨트	-11.4181
▁수업을	-11.4181
▁수중	-11.4181
례를	-11.4182
▁흐르는	-11.4183
꼴	-11.4186
'(	-11.4186
▁초고속	-11.4187
▁꼬집었다	-11.4193
ear	-11.4193
여개의	-11.4194
▁장점이다	-11.4195
▁지름	-11.4197
상자	-11.4197
일자	-11.4197
▁포르투갈	-11.4198
▁사례는	-11.4199
그룹이	-11.4201
▁서서	-11.4201
▁빠	-11.4202
각을	-11.4204
▁자신감	-11.4204
▁과다	-11.4205
▁주장했습니다	-11.4206
구에	-11.4206
▁국장	-11.4206
▁오빠	-11.4206
▁과거사	-11.4206
▁상승세	-11.4207
▁다하겠다	-11.4208
▁진상	-11.4208
▁시트	-11.4209
물에	-11.4211
▁차남	-11.4212
▁펼치	-11.4212
▁기록이	-11.4212
▁높아진	-11.4213
입니까	-11.4215
론의	-11.4215
▁국무회의	-11.4216
▁가상화폐	-11.4216
▁상한	-11.4217
컨설팅	-11.4217
버릴	-11.4217
▁오일	-11.4218
▁가족들	-11.4218
▁보건당국	-11.4219
▁최양희	-11.4219
파를	-11.4219
▁동남아시아	-11.422
▁액수	-11.4222
▁적힌	-11.4222
▁요원	-11.4223
▁클레	-11.4224
▁조조	-11.4228
▁미얀마	-11.4228
▁없다면	-11.4228
▁천재	-11.4228
▁상표	-11.4228
▁올라온	-11.4229
▁차가	-11.423
▁건네	-11.4232
▁국도	-11.4233
▁까닭	-11.4233
▁모델인	-11.4233
▁꾸려	-11.4233
▁인터넷을	-11.4234
▁실시할	-11.4234
▁탭	-11.4234
▁국무부	-11.4235
▁차이는	-11.4236
▁마산	-11.4239
▁그들	-11.424
▁확정된	-11.424
르기	-11.4241
▁표본	-11.4241
있던	-11.4241
▁어디서나	-11.4242
▁왕자	-11.4244
▁석사	-11.4245
해볼	-11.4245
▁아르헨티나	-11.4246
▁후지	-11.4248
▁암호	-11.425
▁장난	-11.4251
▁미래부는	-11.4251
▁물량이	-11.4253
▁한국거래소	-11.4255
▁완성도	-11.4256
▁집중되고	-11.4256
▁버전으로	-11.4256
▁입단	-11.4257
교환	-11.4257
▁느낀	-11.4258
▁단계에	-11.4258
표가	-11.426
▁잡히	-11.4262
▁주장이다	-11.4263
▁안성	-11.4265
▁발견한	-11.4265
PP	-11.4268
▁190	-11.4272
▁비하면	-11.4272
▁사용되고	-11.4274
▁→	-11.4276
발표	-11.4278
▁벌어졌다	-11.4279
▁우대	-11.4281
▁뛰어나다	-11.4282
▁최종적으로	-11.4284
▁CNBC	-11.4284
▁국제사회의	-11.4287
▁탕	-11.4289
▁않겠다	-11.4289
▁넣는	-11.4289
▁임직원들	-11.429
▁이룰	-11.4291
od	-11.4291
년차	-11.4292
▁옥수수	-11.4292
▁조사결과	-11.4292
캣	-11.4293
자료를	-11.4294
▁작가가	-11.4295
▁스마트폰이	-11.4295
▁계시	-11.4295
▁수석대표	-11.4297
론에	-11.4297
▁이길	-11.4301
▁가정용	-11.4301
▁올랐	-11.4304
▁정상회담을	-11.4305
▁멘토	-11.4305
아프리카	-11.4305
냅	-11.4306
▁최후	-11.4306
▁API	-11.4306
▁드러	-11.4306
▁안다	-11.4306
법의	-11.4307
코프	-11.4308
▁특이	-11.4309
▁지침	-11.4309
▁소장은	-11.4309
▁사례로	-11.4309
▁믿을	-11.431
☎	-11.431
▁연이어	-11.431
OP	-11.4311
mAh	-11.4311
▁방사선	-11.4312
▁지나가	-11.4312
▁벌어지는	-11.4314
문화재단	-11.4316
▁이색	-11.4317
▁날씨가	-11.4318
▁끌어올리	-11.4319
▁2015.04.1	-11.432
▁듣기	-11.432
by	-11.432
그리	-11.4322
▁시장으로	-11.4322
▁떠났다	-11.4322
▁법이	-11.4323
▁정식으로	-11.4324
GA	-11.4324
▁명으로	-11.4325
개국에서	-11.4325
▁놓여	-11.4325
▁아닙니까	-11.4327
▁찾아온	-11.4328
제조	-11.4328
▁관리에	-11.4328
방울	-11.4328
머스	-11.4329
협약	-11.4329
▁깃	-11.433
▁분야별	-11.433
▁싸우는	-11.4331
▁실정	-11.4331
▁후임	-11.4332
▁핵심은	-11.4332
▁GM	-11.4333
▁대지	-11.4333
▁산업부	-11.4333
CS	-11.4334
▁추첨	-11.4336
▁만료	-11.4337
▁브레이크	-11.4337
츄	-11.4338
▁금융당국	-11.4338
New	-11.4339
군으로	-11.434
▁일정으로	-11.4341
gu	-11.4341
상과	-11.4341
▁유한	-11.4342
▁주총	-11.4345
▁위상을	-11.4346
▁공직선거법	-11.4347
▁진통	-11.4348
▁알려지지	-11.4348
▁최상의	-11.4349
▁지난해에는	-11.4349
기업이	-11.4349
▁보고서에	-11.4349
▁금융회사	-11.435
▁최장	-11.435
▁겁	-11.435
▁데에	-11.4351
▁공간에서	-11.4351
▁각계	-11.4352
▁명소	-11.4355
▁사진뉴스	-11.4356
▁특혜	-11.436
▁내용과	-11.4361
▁화폐	-11.4362
▁강동	-11.4363
이치	-11.4363
hpwww	-11.4363
▁부풀	-11.4363
▁비용은	-11.4363
▁메카	-11.4365
▁해외시장	-11.4365
▁지지자들	-11.4365
▁봉사활동을	-11.4366
▁시장조사업체	-11.4368
▁원래는	-11.4369
▁이해가	-11.4371
▁IM	-11.4372
누스	-11.4373
▁역사의	-11.4374
▁건데	-11.4374
▁활동하는	-11.4374
▁파격적인	-11.4374
▁제한적	-11.4374
▁이전의	-11.4375
▁바꾼	-11.4376
▁보라	-11.4377
▁잦은	-11.4379
▁소원	-11.4379
▁근무하는	-11.4381
▁빼고	-11.4381
▁감사의	-11.4381
▁효성	-11.4382
가요	-11.4382
▁프레스	-11.4382
▁제이	-11.4383
줬	-11.4384
▁마스크를	-11.4385
물의	-11.4387
▁저서	-11.4387
▁가족의	-11.4388
▁낭	-11.4389
▁조종사	-11.439
프를	-11.439
뉴시스김	-11.439
▁완전한	-11.4391
선에	-11.4391
반응	-11.4392
▁설문	-11.4393
▁페루	-11.4393
폭이	-11.4394
▁주어진	-11.4395
▁대응하는	-11.4395
▁공기업	-11.4397
▁2015.03.1	-11.4398
▁않느냐	-11.4399
▁혼자서	-11.4399
▁광학	-11.4399
▁알려지	-11.44
Pa	-11.4402
클리	-11.4403
▁연구자	-11.4404
▁형상	-11.4404
없	-11.4406
▁공업	-11.441
▁하나하나	-11.441
▁건국	-11.4412
▁주최한	-11.4415
▁동일하게	-11.4415
▁강화하기	-11.4415
▁스트레스를	-11.4416
난다	-11.4417
▁존경	-11.4418
▁대표적이다	-11.4418
▁신개념	-11.4418
▁작품의	-11.4418
시간에	-11.4421
잡이	-11.4421
▁고인	-11.4422
위원회의	-11.4423
▁구성을	-11.4423
▁니즈	-11.4423
정수	-11.4423
▁요인으로	-11.4423
왈	-11.4426
▁페이스북은	-11.4429
▁신청한	-11.4429
▁포부를	-11.443
▁사옥	-11.443
▁김희	-11.4431
▁겐	-11.4433
RI	-11.4434
▁후배	-11.4435
▁추위	-11.4435
▁Ma	-11.4436
▁재활	-11.4437
▁생명체	-11.4437
촉진	-11.4437
▁항구	-11.4439
▁중산층	-11.4439
▁회담을	-11.4439
▁성장이	-11.4439
vi	-11.444
▁사람들도	-11.4441
▁지속될	-11.4443
▁물결	-11.4443
▁장치를	-11.4444
▁학교를	-11.4445
▁샘플	-11.4445
▁인종	-11.4446
▁개그	-11.4448
▁딸기	-11.4448
장소	-11.4448
▁히로	-11.4448
귤	-11.445
▁관리자	-11.445
녕	-11.445
▁욕설	-11.4452
▁번도	-11.4452
▁남지	-11.4454
▁삼각	-11.4454
▁일대에	-11.4454
▁인정받	-11.4454
▁활용도	-11.4456
▁사라졌다	-11.4456
▁강의를	-11.4457
▁펄	-11.4458
드와	-11.4458
▁조류	-11.4458
시계	-11.4459
▁끝나면	-11.446
역으로	-11.446
▁신청자	-11.4461
▁중대한	-11.4464
▁인정하고	-11.4465
과학원	-11.4465
립니다	-11.4466
릭스	-11.4467
▁이용자를	-11.4467
▁필요성이	-11.4467
▁수천	-11.4468
▁않으면서	-11.4469
▁현대차는	-11.4471
▁보여줄	-11.4471
조사를	-11.4472
차례에	-11.4473
동에서	-11.4473
▁하에	-11.4474
▁연계한	-11.4474
▁나타났	-11.4475
▁구성하는	-11.4476
8.5	-11.4476
▁강화된	-11.4477
믹	-11.4478
▁병실	-11.4479
▁SP	-11.4479
▁성장하는	-11.4479
▁KBO	-11.448
▁서울중앙지법	-11.4481
▁파트너십을	-11.4481
▁템	-11.4482
▁94	-11.4484
▁체험을	-11.4484
▁승부를	-11.4484
자재	-11.4487
▁안고	-11.4487
▁세력이	-11.4488
제국	-11.4488
▁출고가는	-11.4489
▁발목	-11.4492
CBS	-11.4492
▁마리아	-11.4493
]]	-11.4496
▁기침	-11.4496
▁사회에서	-11.4496
▁금리를	-11.4497
▁서울대병원	-11.4499
상승	-11.4503
▁거기서	-11.4503
행위를	-11.4504
▁웨	-11.4504
▁싶습니다	-11.4505
▁불렀다	-11.4506
▁스마트시티	-11.4506
▁국민의당은	-11.4507
UN	-11.4507
툴	-11.4508
su	-11.4509
▁엮	-11.4509
군단	-11.4512
▁시가	-11.4512
▁선수이다	-11.4514
▁박진	-11.4514
▁많기	-11.4515
▁경북도	-11.4515
▁구축할	-11.4516
▁세이	-11.4516
▁순위를	-11.4517
▁공정성	-11.4517
▁관객들	-11.4517
▁효율을	-11.4519
뭇	-11.4519
▁매출액은	-11.4519
▁마련을	-11.4519
롯	-11.4519
▁단원	-11.4519
▁마구	-11.452
▁상대를	-11.4521
▁지구의	-11.4522
▁뚝	-11.4524
▁장학금	-11.4524
채용	-11.4526
",	-11.4527
조리	-11.4528
▁구조로	-11.4529
▁등록을	-11.453
▁남산	-11.453
▁노력해	-11.4531
▁파기	-11.4532
▁가져오	-11.4532
▁통장	-11.4533
▁변화와	-11.4535
목적	-11.4535
▁가능하다고	-11.4535
▁싶었다	-11.4535
▁트윈	-11.4537
▁상인들	-11.4539
▁계획에	-11.4539
▁시범사업	-11.454
▁학살	-11.4541
▁틀어	-11.4541
▁화보	-11.4542
▁부족하다	-11.4544
▁덴	-11.4544
빨	-11.4545
EN	-11.4545
흠	-11.4546
지방경찰청	-11.4546
▁바쁜	-11.4546
어져	-11.4547
뎀	-11.4547
▁아시	-11.4548
조에	-11.4549
▁출시되는	-11.455
▁빠져나	-11.455
떨	-11.4551
▁제재를	-11.4552
▁실물	-11.4553
▁투명성	-11.4555
▁긍정	-11.4556
더라고요	-11.4557
▁신학	-11.4558
▁국가대표	-11.4558
kim	-11.4558
▁1983	-11.4561
▁걸렸다	-11.4561
반을	-11.4562
▁노동계	-11.4563
변호사	-11.4563
▁기부금	-11.4564
▁영업을	-11.4564
▁구체화	-11.4564
▁골자로	-11.4565
수정	-11.4565
해양	-11.4566
▁거실	-11.4567
▁제작해	-11.4567
▁지옥	-11.4567
해지면서	-11.4567
▁국기	-11.4568
▁맡는다	-11.457
▁위조	-11.4571
▁악수하고	-11.4572
▁호소하고	-11.4572
▁지식을	-11.4572
▁모리	-11.4574
국에서	-11.4574
▁나오면서	-11.4575
되었지만	-11.4575
▁바퀴	-11.4575
▁엄청나게	-11.4575
▁실명	-11.4576
지연	-11.4576
▁싸이	-11.4577
▁정기국회	-11.4579
업계에	-11.458
▁감옥	-11.4581
▁남해	-11.4581
▁수거	-11.4582
▁하스스톤	-11.4582
▁하여금	-11.4582
▁불황	-11.4582
박동욱	-11.4583
▁고쳐	-11.4583
▁구청	-11.4585
삿	-11.4587
▁네이버의	-11.4587
▁개정안이	-11.4587
▁고립	-11.4587
경쟁력	-11.4588
▁포스코건설	-11.4588
▁전분기	-11.4589
▁정부서울청사	-11.4589
▁무대를	-11.459
기업인	-11.4592
▁폭이	-11.4592
▁사라지	-11.4594
▁표현이	-11.4594
▁소속사	-11.4595
▁반면에	-11.4595
▁부분도	-11.4597
▁아이들에게	-11.4598
▁내륙	-11.4599
▁많지만	-11.4599
▁작품들	-11.4599
▁메이커	-11.4599
▁하도록	-11.46
▁탈당을	-11.4601
▁흉기	-11.4602
▁하나씩	-11.4603
▁발언에	-11.4604
배에	-11.4605
서울시	-11.4605
▁정리해	-11.4605
▁빨간	-11.4608
기관인	-11.4608
크는	-11.4609
▁나서야	-11.461
▁사용자들이	-11.461
▁1982	-11.4611
▁상하	-11.4614
▁밖	-11.4614
▁엄격한	-11.4616
▁이외의	-11.4616
▁신입사원	-11.4616
▁FPS	-11.4618
▁비해서	-11.4618
▁고민이	-11.4619
IM	-11.4619
no	-11.462
▁주장한다	-11.462
▁일당	-11.4621
▁탄도미사일	-11.4622
▁판단하고	-11.4622
▁둥	-11.4623
학년도	-11.4623
공을	-11.4623
라고도	-11.4624
▁터보	-11.4625
"/>	-11.4626
최대	-11.4627
▁점유율은	-11.4627
▁참가하는	-11.4627
▁금융위기	-11.4628
▁행운	-11.463
▁비극	-11.463
▁곳도	-11.463
SD	-11.4631
병이	-11.4633
해나갈	-11.4633
▁매물	-11.4634
달라	-11.4636
▁삼국	-11.4636
특허	-11.4638
▁인가	-11.4638
▁다문화	-11.4639
▁밖의	-11.464
꽁	-11.4641
리나	-11.4641
거리가	-11.4641
▁판매점	-11.4642
▁밝기	-11.4642
▁마디	-11.4642
똥	-11.4647
쎄	-11.4647
▁있어서는	-11.4648
▁건강보험	-11.4648
▁깎	-11.4649
계가	-11.4649
▁특이한	-11.4652
화해	-11.4652
남부	-11.4653
▁우회	-11.4654
▁이쪽	-11.4656
▁안티	-11.4656
왔고	-11.4657
▁사업자가	-11.4658
▁쇄신	-11.4661
사기	-11.4661
쾌	-11.4662
▁나와서	-11.4663
▁사태에	-11.4663
▁항해	-11.4663
▁각국의	-11.4663
▁채로	-11.4664
▁주주총회	-11.4664
▁되지만	-11.4664
보라	-11.4667
왼쪽부터	-11.4668
▁괴물	-11.4669
▁갤	-11.467
함대	-11.467
▁반납	-11.4671
남북	-11.4671
▁확보하기	-11.4672
▁폭로	-11.4672
산업협회	-11.4672
▁도발에	-11.4673
▁명에	-11.4673
관과	-11.4674
▁유럽에서	-11.4679
▁성장에	-11.4679
TB	-11.4681
▁총수	-11.4681
▁사우디아라비아	-11.4682
▁닦	-11.4682
져야	-11.4683
▁기념행사	-11.4683
오르	-11.4683
▁항공권	-11.4684
▁부양	-11.4685
▁일어났	-11.4685
▁주도한	-11.4686
이면서	-11.4686
▁분위기다	-11.4686
▁가해자	-11.4686
계에서	-11.4686
▁통계청	-11.4687
▁결과물	-11.4687
▁예컨대	-11.4689
▁김주	-11.469
▁애널리스트	-11.469
▁관통	-11.469
▁애플리케이션앱	-11.4692
▁미소	-11.4692
▁유혹	-11.4692
▁모델하우스	-11.4693
▁캠	-11.4694
▁9000	-11.4696
▁핏	-11.4696
번의	-11.4698
공공	-11.4698
▁1979	-11.4699
▁해수부	-11.47
쳤	-11.4701
3.9	-11.4701
마력	-11.4702
▁쟁점법안	-11.4702
▁후회	-11.4703
▁MB	-11.4704
ud	-11.4705
▁시원한	-11.4706
층은	-11.4707
▁NC	-11.4707
내역	-11.4707
▁구호를	-11.4708
▁태그	-11.4709
▁조속한	-11.471
▁GPS	-11.471
▁시스템에	-11.4711
주면	-11.4711
▁달성한	-11.4711
댐	-11.4713
▁학업	-11.4714
▁경제에	-11.4715
▁활용하면	-11.4716
▁다하겠다고	-11.4716
▁시작했고	-11.4718
▁위력	-11.4718
▁유감	-11.4718
조로	-11.4718
▁별명	-11.4719
▁요청한	-11.472
▁가족을	-11.4722
▁락	-11.4722
▁미미	-11.4723
▁내게	-11.4723
ci	-11.4724
▁콤보	-11.4724
▁열매	-11.4724
▁착한	-11.4725
▁실증	-11.4725
▁목적지	-11.4725
▁온다	-11.4725
▁본연의	-11.4726
▁광주뉴시스	-11.4726
▁2015.06.0	-11.4727
▁예상치	-11.4727
▁집필	-11.4729
▁나오는데	-11.4731
▁플로	-11.4732
집단	-11.4733
▁감싸	-11.4733
▁빠졌다	-11.4734
▁이어갔다	-11.4735
▁행자부	-11.4735
회의실에서	-11.4738
▁어르신들	-11.4738
▁확보하는	-11.4738
▁기적	-11.4739
2.1	-11.474
▁평일	-11.474
토론	-11.474
▁피하기	-11.474
됨	-11.4741
▁자본주의	-11.4741
▁고령화	-11.4742
퓨	-11.4744
▁김기춘	-11.4744
진행	-11.4744
▁직면	-11.4745
아카데미	-11.4745
▁김정훈	-11.4747
▁러닝	-11.4747
▁연초	-11.4748
▁갱	-11.4748
▁고심	-11.4749
▁맞물려	-11.4749
▁BJ	-11.4749
트론	-11.475
▁케어	-11.4752
▁누구도	-11.4753
▁여동생	-11.4754
▁첨가	-11.4754
▁것들	-11.4756
▁방문을	-11.4757
분양	-11.4758
▁St	-11.4758
▁처리가	-11.4758
▁방법이다	-11.4759
▁원거리	-11.4762
▁실질적	-11.4764
마의	-11.4764
▁파트	-11.4765
▁교감	-11.4765
▁수강	-11.4765
었다고	-11.4766
▁아찔	-11.4766
▁재학생	-11.4766
임이	-11.4767
▁대화면	-11.4768
3.5	-11.4769
▁목소리도	-11.4769
▁싶다는	-11.4769
▁전략으로	-11.477
▁공화당	-11.477
▁실습	-11.4771
▁이원	-11.4773
▁연쇄	-11.4776
▁취해	-11.4778
▁분비	-11.4778
▁얼굴에	-11.4778
▁공간에	-11.478
▁목을	-11.478
▁안면	-11.4781
번째로	-11.4782
ff	-11.4782
▁기록했다고	-11.4783
▁펫	-11.4783
하자면	-11.4785
▁의석	-11.4786
▁공청회	-11.4787
▁언론인	-11.4787
▁반란	-11.4788
▁표정을	-11.4788
▁평소에	-11.4789
졌	-11.479
▁관내	-11.479
▁생각하	-11.4791
▁메리	-11.4791
▁볼거리	-11.4791
버려	-11.4791
▁녀석	-11.4792
▁구조물	-11.4793
▁정종섭	-11.4794
터미널	-11.4794
민의	-11.4796
▁잡혀	-11.4796
▁영화관	-11.4797
▁나갔다	-11.4797
▁관계자들	-11.4798
▁실시하는	-11.4799
BO	-11.48
▁기능으로	-11.48
▁로버트	-11.48
병원에서	-11.48
▁당청	-11.4801
▁나간	-11.4802
▁공격적인	-11.4802
▁자원을	-11.4802
▁총무	-11.4803
▁5·18	-11.4803
▁않았을	-11.4804
▁이용권	-11.4805
▁구제	-11.4806
▁주변에서	-11.4806
▁때문이었다	-11.4807
▁출구	-11.4808
▁예상보다	-11.4808
프라	-11.481
▁떨어지고	-11.4811
▁아리	-11.4811
▁전제로	-11.4811
2018	-11.4813
▁되풀이	-11.4815
▁출하	-11.4817
▁침대	-11.4817
▁항소심	-11.4819
▁예약판매	-11.4819
볶	-11.482
▁결국은	-11.482
▁회견	-11.4823
▁위임	-11.4823
▁이동하고	-11.4823
▁만주	-11.4823
▁급감	-11.4824
터치	-11.4824
▁쪽에서	-11.4825
▁도와주	-11.4825
▁조상	-11.4825
▁마찰	-11.4827
▁구조가	-11.4828
받았	-11.4828
▁자연스러운	-11.4828
▁실패한	-11.4829
▁91	-11.4829
game	-11.4831
▁창출을	-11.4831
▁홍대	-11.4831
▁가슴을	-11.4832
만원까지	-11.4834
블랙	-11.4836
▁한국인터넷진흥원	-11.4837
▁진상규명	-11.4838
국에	-11.484
타르	-11.4842
▁발라	-11.4842
▁멍	-11.4843
▁로보	-11.4844
▁당국의	-11.4844
▁빛의	-11.4845
요리	-11.4846
▁접근성	-11.4847
드려	-11.4847
▁우울증	-11.4847
▁붓	-11.4848
▁속도는	-11.485
MP	-11.485
▁연비	-11.485
▁이번에도	-11.4851
바르	-11.4854
만으로는	-11.4854
▁흠	-11.4855
▁탐험	-11.4855
▁서식	-11.4856
▁삭감	-11.4856
학기	-11.4856
▁디저트	-11.4857
오던	-11.4858
▁헤드셋	-11.4859
▁구하기	-11.4859
ki	-11.4859
긍	-11.486
▁서둘러	-11.486
▁급성장	-11.486
▁밝히지	-11.4862
혜택	-11.4863
▁알아보	-11.4863
했죠	-11.4863
▁미치	-11.4864
안내	-11.4864
▁기대가	-11.4865
▁아우르는	-11.4866
▁공동대표가	-11.4867
▁맞추	-11.4867
▁특강	-11.4867
욕을	-11.4869
▁익산	-11.487
▁상고	-11.487
하세요	-11.487
▁주입	-11.4872
▁진료를	-11.4873
▁겪었다	-11.4873
▁더했다	-11.4874
▁발언은	-11.4876
▁ID	-11.4876
▁떠나는	-11.4878
▁김명	-11.4878
▁작년에	-11.4879
▁대면	-11.4881
▁착각	-11.4882
들었다	-11.4882
▁경보	-11.4883
▁전망도	-11.4883
▁애국	-11.4883
▁극히	-11.4884
부스	-11.4884
▁의총	-11.4884
▁충분	-11.4887
▁장인	-11.4889
if	-11.4889
을까	-11.489
뚱	-11.489
▁매번	-11.489
▁답답	-11.4891
▁여당은	-11.4892
▁저격	-11.4892
▁탱크	-11.4892
▁소외	-11.4893
▁나빠	-11.4894
▁만하다	-11.4897
▁헛	-11.4897
▁초창기	-11.4898
▁1981	-11.4899
▁세력을	-11.49
사키	-11.49
▁바라보고	-11.4903
▁토끼	-11.4904
▁주장은	-11.4905
▁유동성	-11.4905
▁멜론	-11.4905
▁지나친	-11.4905
▁제공했다	-11.4906
▁최선의	-11.4907
배가	-11.4907
▁펠	-11.4908
▁KO	-11.4908
기까지	-11.4909
▁애드	-11.4911
▁연구진이	-11.4912
▁앞장	-11.4913
플랜	-11.4913
▁활용하고	-11.4914
▁궤	-11.4914
()'	-11.4916
▁묻자	-11.4916
문재인	-11.4918
▁아직은	-11.4919
▁검색어	-11.4919
▁기억을	-11.492
▁풀려	-11.492
다니	-11.492
형의	-11.4921
포로	-11.4921
▁출범식	-11.4922
플라	-11.4923
▁주승용	-11.4924
▁최소한의	-11.4925
▁버려	-11.4925
▁동의를	-11.4925
이크	-11.4926
▁비춰	-11.4926
캐피탈	-11.4928
▁비결	-11.4928
▁준비가	-11.4929
오프라인	-11.493
▁대화하고	-11.493
▁적용될	-11.4931
▁제시하고	-11.4931
▁법원은	-11.4931
wi	-11.4933
▁공용	-11.4934
▁휴대	-11.4935
▁대타협	-11.4935
▁조기에	-11.4935
▁투자할	-11.4936
▁자존심	-11.4936
▁시골	-11.4937
경찰청	-11.4938
▁연기를	-11.4938
배우	-11.494
▁편안한	-11.494
매매	-11.494
▁가로막	-11.494
▁FA	-11.494
▁이뤄졌	-11.4941
리서치	-11.4941
튜	-11.4942
▁[[	-11.4943
▁묘역	-11.4943
▁돌며	-11.4944
▁운영된다	-11.4945
덜	-11.4945
▁물어보	-11.4945
▁저널	-11.4946
▁혼란을	-11.4946
▁표현한	-11.4946
▁자금이	-11.4946
▁많다고	-11.4948
▁예보	-11.4948
▁광양	-11.4949
수석	-11.4949
▁돌아가는	-11.495
자문	-11.4951
터가	-11.4951
껴	-11.4951
▁공개적으로	-11.4952
동맹	-11.4953
▁기다리는	-11.4953
▁살해한	-11.4954
▁이럴	-11.4954
▁진술을	-11.4956
▁회원들	-11.4957
▁자신도	-11.4958
조작	-11.496
▁가져올	-11.4961
▁선대위	-11.4961
▁기차	-11.4962
▁팬들의	-11.4962
▁구속영장을	-11.4964
▁거울	-11.4965
pa	-11.4966
연결	-11.4966
▁입었다	-11.4966
▁내려오	-11.4967
3.0	-11.4968
▁포함된다	-11.497
▁기울	-11.497
산동	-11.497
▁정상적으로	-11.4971
스트로	-11.4972
▁더욱이	-11.4973
건물	-11.4973
▁기간은	-11.4975
▁인식하고	-11.4975
▁비슷하게	-11.4975
차는	-11.4975
▁근본적으로	-11.4978
▁좋게	-11.4978
바로	-11.4979
찮	-11.4979
▁세븐나이츠	-11.4981
▁잠을	-11.4982
▁종북	-11.4982
▁역으로	-11.4982
▁노하우	-11.4982
▁이미지가	-11.4983
▁등록된	-11.4983
지라	-11.4985
▁따위	-11.4985
▁영화이다	-11.4986
지오	-11.4988
준희	-11.499
▁아픈	-11.499
▁견본주택	-11.4991
▁해적	-11.4992
▁달러약	-11.4992
자기	-11.4993
▁옮	-11.4994
▁기둥	-11.4994
▁아랍	-11.4997
▁으	-11.4998
사정	-11.4999
려서	-11.4999
▁성동구	-11.5
경을	-11.5003
▁자유를	-11.5003
▁나카	-11.5004
▁책상	-11.5004
▁역사가	-11.5005
▁대결을	-11.5005
▁요구가	-11.5007
▁도대체	-11.5009
▁우위를	-11.5009
차별	-11.501
주식회사	-11.5013
▁처리하는	-11.5014
들에게는	-11.5014
▁무력화	-11.5015
▁습득	-11.5015
쳤습니다	-11.5015
150	-11.5017
▁미용	-11.5018
▁총력을	-11.5019
▁아시아나항공	-11.502
다시피	-11.5023
▁여전	-11.5023
엑스포	-11.5023
▁군이	-11.5024
▁적용됐다	-11.5024
▁대동	-11.5025
▁끝이	-11.5025
▁바로잡	-11.5025
▁명목으로	-11.5025
문이	-11.5028
쯔	-11.5028
▁심하게	-11.5028
분류	-11.5029
VE	-11.5029
출처	-11.503
▁사태로	-11.503
▁문형표	-11.503
▁부품을	-11.503
▁진출에	-11.503
▁일조	-11.503
▁말아야	-11.5033
▁푸짐한	-11.5033
▁시카고	-11.5034
▁작가는	-11.5034
▁의식을	-11.5034
화하는	-11.5036
▁자는	-11.5037
여년	-11.5038
▁한두	-11.504
▁외에는	-11.5041
▁초부터	-11.5041
▁평화와	-11.5042
▁인하여	-11.5042
▁뇌물	-11.5043
▁그릇	-11.5043
▁유성	-11.5046
▁떨어졌	-11.5048
자격	-11.5048
미술관	-11.5049
▁띈다	-11.5049
▁마이너스	-11.5049
전사	-11.5049
값을	-11.505
▁보름	-11.5052
지식	-11.5054
▁적고	-11.5055
턱	-11.5055
▁초반에	-11.5055
▁CI	-11.5056
왔습니다	-11.5058
▁곳곳	-11.5058
▁뛰어넘는	-11.5059
▁최근에	-11.5061
▁좋았	-11.5063
▁알기	-11.5064
수수료	-11.5067
▁간호	-11.5067
▁김도훈	-11.507
당에서	-11.507
▁연구기관	-11.5072
▁건지	-11.5073
▁있을까요	-11.5073
▁근원	-11.5074
▁유로존	-11.5075
▁작고	-11.5075
▁글로	-11.5076
▁작용할	-11.5077
▁혼인	-11.5078
공동체	-11.5078
▁이병기	-11.5079
▁버렸다	-11.5079
티어	-11.5079
나미	-11.5081
▁썰	-11.5081
▁캐릭터들	-11.5081
▁결정적인	-11.5083
▁못하다	-11.5084
▁부러	-11.5084
MWC	-11.5088
파가	-11.5089
▁닥	-11.509
▁쿠키	-11.509
▁아들을	-11.509
둥이	-11.509
▁업체에	-11.5091
▁인문	-11.5091
▁이뤘다	-11.5092
▁딸이	-11.5092
▁부산에서	-11.5092
▁타이밍	-11.5092
▁기록하는	-11.5092
▁문자메시지	-11.5094
▁냉각	-11.5094
었어요	-11.5096
봤	-11.5097
ver	-11.5098
▁것임을	-11.5098
▁처분을	-11.5099
▁유저가	-11.51
▁앱은	-11.5103
부모	-11.5103
패션	-11.5103
▁두려움	-11.5104
▁부가	-11.5104
▁포드	-11.5104
▁활용될	-11.5105
▁다양	-11.5105
절을	-11.5106
▁복사	-11.5107
▁인물이다	-11.5107
▁구성했다	-11.5107
▁끝났다	-11.5108
들고	-11.5108
▁호재	-11.5109
끙	-11.5109
경보	-11.511
▁대표도	-11.511
ser	-11.5112
▁줄어드는	-11.5113
전과	-11.5115
팽	-11.5116
▁드린다	-11.5117
▁소유자	-11.5117
아래	-11.5118
▁지역과	-11.512
미는	-11.512
▁임박	-11.512
▁크다는	-11.5122
의약품	-11.5123
▁산학협력	-11.5123
이벤트	-11.5124
▁소공동	-11.5124
▁호평	-11.5124
▁활약을	-11.5125
Co	-11.5125
▁직선	-11.5126
▁소나무	-11.5127
▁삼성이	-11.5128
어의	-11.5129
▁디자인으로	-11.513
▁뽑기	-11.513
▁관람객들이	-11.513
붓	-11.5132
▁괜찮	-11.5132
시설이	-11.5133
▁이력	-11.5134
▁휴일	-11.5134
대한민국	-11.5135
육성	-11.5136
▁기상청	-11.5136
▁분배	-11.5136
▁주장도	-11.5138
▁서거	-11.5138
렀다	-11.5138
▁하반기에	-11.5139
정환	-11.5139
▁자리잡	-11.514
소장	-11.5141
사업의	-11.5141
▁매력적인	-11.5142
▁축산	-11.5142
엣	-11.5145
▁길어	-11.5147
ns	-11.5148
영역	-11.5149
▁사회부총리	-11.5149
0.0	-11.5149
▁재해	-11.5149
터는	-11.515
행복	-11.515
▁달고	-11.515
▁주둔	-11.515
선과	-11.5151
▁했기	-11.5151
시로	-11.5151
▁개표	-11.5153
▁불행	-11.5157
▁별개로	-11.5157
▁de	-11.5157
▁권오	-11.5158
모를	-11.5158
▁컴투스	-11.5159
▁검토할	-11.516
▁공정거래위원회	-11.5161
▁북한과	-11.5161
▁자신들이	-11.5161
무장	-11.5165
▁퇴임	-11.5167
위원회에서	-11.5167
POP	-11.5167
▁헌재	-11.5169
▁춘천시	-11.5169
▁장갑	-11.517
▁5.5	-11.5171
▁장르의	-11.5171
3.1	-11.5172
▁신도	-11.5172
▁아이들은	-11.5172
▁신의	-11.5174
▁따르	-11.5174
▁맥락	-11.5174
▁게임에서	-11.5175
▁떨어진다	-11.5175
전형	-11.5175
▁베이비	-11.5177
만큼은	-11.5178
▁좌절	-11.5179
▁정책과	-11.518
▁없었습니다	-11.5182
▁구축에	-11.5183
콰	-11.5183
▁받기도	-11.5184
▁환상	-11.5184
ine	-11.5185
▁중심지	-11.5186
NC	-11.5186
▁지원사업	-11.5187
▁제시하는	-11.5188
젯	-11.5188
▁마침	-11.5189
▁체내	-11.5189
프는	-11.5189
▁유력한	-11.519
나게	-11.519
▁백업	-11.5191
냄	-11.5191
픈	-11.5192
▁출발해	-11.5193
▁시중은행	-11.5193
▁개막식	-11.5194
▁지문인식	-11.5194
▁모드를	-11.5194
▁예방을	-11.5196
▁오라클	-11.5196
나물	-11.5196
▁맑은	-11.5198
▁공약을	-11.5199
▁충실	-11.5199
▁음모	-11.52
▁진흥	-11.5201
▁싱크	-11.5201
▁꼼꼼히	-11.5201
▁다툼	-11.5202
▁충주	-11.5202
▁개선이	-11.5203
라기	-11.5204
2.0	-11.5205
▁지휘관	-11.5206
▁헝가리	-11.5206
▁시장과	-11.5206
▁2015.06.2	-11.5208
▁국회의	-11.5209
▁오르고	-11.521
▁노르웨이	-11.5211
선언	-11.5212
▁노선을	-11.5212
특별위원회	-11.5213
민이	-11.5213
지훈	-11.5214
▁중앙정부	-11.5214
▁흑인	-11.5216
▁박용	-11.5216
▁국가를	-11.5217
있어	-11.5218
▁국외	-11.5219
▁한자	-11.5219
▁생각보다	-11.5219
▁지방의	-11.5219
증후군	-11.5219
▁재산을	-11.522
▁이끌었다	-11.5221
▁평창동계올림픽	-11.5221
▁위키	-11.5221
▁내년도	-11.5223
▁넘었다	-11.5223
▁실정이다	-11.5223
▁대미지	-11.5223
ter	-11.5223
푼	-11.5224
▁데이터가	-11.5225
세와	-11.5226
▁장례	-11.5226
권에서	-11.5226
▁유리하다	-11.5226
▁텐	-11.5227
▁경사	-11.5227
▁넓어	-11.5229
▁업체들	-11.5229
콘서트	-11.523
▁빈소	-11.523
▁왕이	-11.523
▁쌓여	-11.5231
▁권력을	-11.5231
▁지역별로	-11.5231
방어	-11.5233
소스	-11.5235
▁당신의	-11.5235
3.3	-11.5236
▁주머니	-11.5237
▁걸그룹	-11.5238
▁원화	-11.5238
▁협동	-11.5239
▁특정한	-11.5241
▁다름	-11.5242
▁그들을	-11.5243
▁스프링	-11.5244
▁양도	-11.5244
▁가라앉	-11.5244
가입	-11.5244
수산	-11.5244
▁관광객들이	-11.5245
▁러브	-11.5245
딧	-11.5246
▁1.8	-11.5246
▁계곡	-11.5246
▁가리키는	-11.5247
▁몰라	-11.5248
4.1	-11.5248
▁있거든요	-11.5249
흔	-11.5251
▁것이라면서	-11.5252
▁숙소	-11.5254
하진	-11.5254
물류	-11.5255
▁석탄	-11.5256
▁개인이	-11.5256
▁아쿠아	-11.5256
▁운영해	-11.5257
퍼스	-11.5258
▁y	-11.5258
재난	-11.5258
미화	-11.5261
▁간사인	-11.5261
▁실리콘	-11.5262
▁페이스	-11.5263
벌레	-11.5263
▁한국에서는	-11.5263
▁인용해	-11.5264
▁교차	-11.5264
▁줄인	-11.5267
▁하트	-11.5267
▁소관	-11.5268
편이	-11.5268
▁성공할	-11.5269
▁자진	-11.5269
▁3.1	-11.5269
▁옮기	-11.5272
▁차등	-11.5273
▁증가로	-11.5274
▁장애물	-11.5275
▁성폭력	-11.5276
실장은	-11.5276
▁흔들리	-11.5276
▁사람들과	-11.5276
지표	-11.5278
목을	-11.5278
워즈	-11.5279
▁런	-11.5281
▁과제로	-11.5281
가락	-11.5281
▁가족들이	-11.5283
▁그러므로	-11.5283
할인	-11.5283
계는	-11.5284
실이	-11.5285
▁앵커멘트	-11.5285
▁후손	-11.5286
평균	-11.5286
함으로	-11.5286
▁해가	-11.5286
탭	-11.5286
스러워	-11.5287
▁스틸	-11.5287
▁파악해	-11.5287
lee	-11.5288
aa	-11.5288
▁금액은	-11.5288
▁부모가	-11.5288
▁용의	-11.5288
길이	-11.5289
▁시기가	-11.5291
▁작아	-11.5292
▁당연	-11.5292
군인	-11.5293
▁배를	-11.5293
▁공부를	-11.5293
았는데	-11.5294
▁그녀	-11.5294
▁우주선	-11.5296
▁CS	-11.5296
▁전례	-11.5296
\	-11.5297
▁아닌지	-11.5297
▁포지션	-11.5298
▁되겠	-11.5298
▁나라에서	-11.5298
▁모두발언	-11.5299
▁리버	-11.5299
하여야	-11.53
▁수분	-11.5301
용수	-11.5301
▁시위를	-11.5301
▁가처분	-11.5302
▁꾸며	-11.5302
▁기본으로	-11.5302
법률	-11.5304
재산	-11.5305
시고	-11.5307
기에는	-11.5307
훼	-11.5307
▁엑스포	-11.5307
▁가세	-11.5308
센스	-11.5309
▁카르	-11.5309
▁재학	-11.531
▁남기고	-11.5311
▁퇴근	-11.5311
역량	-11.5313
버드	-11.5313
▁삽	-11.5316
▁선보였	-11.5317
렴	-11.5317
▁창단	-11.532
▁아메리카	-11.5321
▁폭을	-11.5323
족의	-11.5324
▁산악	-11.5326
▁수용할	-11.5326
▁마신	-11.5326
▁익명	-11.5327
낱	-11.5327
▁프린팅	-11.5327
▁방송에서	-11.5329
▁1.2	-11.5329
▁이씨는	-11.533
▁톰	-11.5331
▁벗어나지	-11.5331
금속	-11.5331
▁펼쳐진다	-11.5333
▁청춘	-11.5333
▁밝혀진	-11.5333
▁이해관계	-11.5334
▁윌리엄	-11.5334
▁인턴	-11.5334
▁표정으로	-11.5335
금융그룹	-11.5335
▁꿈꾸는	-11.5336
▁물품을	-11.5339
받는다	-11.534
▁시작하였다	-11.534
▁공산당	-11.534
▁말리	-11.5342
▁빔	-11.5343
▁2015.07.0	-11.5344
▁먹어	-11.5345
젓	-11.5346
▁나흘	-11.5348
마를	-11.5348
▁내용도	-11.535
▁jc	-11.5351
▁동계	-11.5351
찜	-11.5351
▁미사일을	-11.5353
렉스	-11.5353
▁뜬	-11.5354
▁실패했다	-11.5354
▁수준에서	-11.5355
▁낮아지	-11.5355
▁특성에	-11.5355
▁대안을	-11.5357
▁탄핵	-11.5357
▁맑	-11.5358
퀴	-11.5358
<	-11.5358
pe	-11.5359
왔	-11.5359
생을	-11.536
▁나들이	-11.536
▁확정했다	-11.5361
▁대체할	-11.5361
▁썩	-11.5364
▁때에	-11.5364
▁당첨자	-11.5364
▁불이익	-11.5364
▁확실하게	-11.5365
▁통합을	-11.5365
길에	-11.5365
▁돌아보	-11.5366
헝그리앱	-11.5366
페스티벌	-11.5366
▁되어야	-11.5367
▁던킨도너츠	-11.5367
상황을	-11.5367
박쥐	-11.5368
▁상용화를	-11.5368
▁정확도	-11.5369
터리	-11.537
▁우크라이나	-11.5371
▁청탁	-11.5371
igh	-11.5373
IB	-11.5374
햇	-11.5374
▁서울시청	-11.5374
▁2015.01.2	-11.5374
▁복장	-11.5374
▁앓고	-11.5374
▁김제	-11.5375
▁거듭나	-11.5376
▁각도	-11.5377
요구	-11.5378
소에	-11.5378
▁써서	-11.5378
년전	-11.5381
억원에서	-11.5381
▁알았	-11.5381
리언	-11.5381
지급	-11.5382
▁못했고	-11.5382
▁시작한다고	-11.5383
주연합뉴스	-11.5384
▁상임고문	-11.5385
▁싹	-11.5385
▁병사들	-11.5386
▁IMF	-11.5388
▁맞붙	-11.5388
▁용사	-11.5388
▁내년에	-11.5388
▁게시판	-11.5388
▁표를	-11.5388
▁들어올	-11.5389
▁되기를	-11.539
▁이루어	-11.539
▁현수막	-11.539
▁약간의	-11.5394
▁본토	-11.5395
했다면	-11.5395
▁한국경제	-11.5396
▁물러	-11.5396
▁분량	-11.54
국민은행	-11.5401
▁개인적인	-11.5402
▁증인으로	-11.5402
PO	-11.5402
▁유비	-11.5403
▁메타	-11.5403
▁향하고	-11.5403
듀	-11.5404
▁이벤트로	-11.5406
▁피우	-11.5407
▁더구나	-11.541
▁순이었다	-11.5411
▁Mo	-11.5411
▁시진핑	-11.5412
▁겨냥	-11.5412
▁전환을	-11.5412
▁끝날	-11.5412
▁아르바이트	-11.5413
of	-11.5414
▁변화는	-11.5415
봤습니다	-11.5416
▁하는데요	-11.5416
▁육성을	-11.5416
▁녹화	-11.5417
▁전문성을	-11.5417
OT	-11.5417
어린이	-11.5417
▁냉동	-11.5419
▁못했습니다	-11.5419
▁모순	-11.542
▁출판사	-11.5421
▁스티브	-11.5422
▁속한다	-11.5425
벌이	-11.5425
▁직접적으로	-11.5425
▁핵심인	-11.5426
▁다양화	-11.5426
▁김윤	-11.5427
▁선발된	-11.5427
음성	-11.543
▁나이에	-11.5431
EM	-11.5431
▁이전까지	-11.5432
RC	-11.5433
▁드론을	-11.5434
부처	-11.5435
▁단종	-11.5435
▁조선일보	-11.5437
▁하남	-11.5439
▁선제	-11.5441
▁제작진	-11.5441
▁영유아	-11.5442
▁명성	-11.5442
▁달라지	-11.5443
▁계류	-11.5443
▁원내대표를	-11.5445
▁곡을	-11.5445
▁맛과	-11.5448
▁휴대용	-11.5449
▁차체	-11.5449
연습	-11.545
▁나아	-11.5451
▁관광객들	-11.5452
▁과반	-11.5453
▁보고서는	-11.5454
▁판문점	-11.5454
▁워터	-11.5455
▁체제로	-11.5455
▁헌혈	-11.5455
▁훔친	-11.5456
경희	-11.5456
▁애플리케이션을	-11.5457
▁한다면서	-11.5457
▁숨어	-11.5458
▁만나게	-11.5458
▁번째는	-11.5459
테스	-11.546
플라자	-11.5461
▁창의	-11.5462
▁방지를	-11.5462
보육	-11.5463
▁예정돼	-11.5464
▁감사합니다	-11.5465
▁폭주	-11.5465
펫	-11.5467
▁동명	-11.5467
▁전망을	-11.5467
▁기자들의	-11.5469
▁열을	-11.5469
ko	-11.547
느라	-11.5471
▁공무원연금개혁	-11.5471
▁장마	-11.5472
▁EBS	-11.5472
▁발사체	-11.5472
▁선거사무소	-11.5473
▁들어갔	-11.5474
▁아니기	-11.5474
▁벌어지	-11.5475
▁취약한	-11.5475
▁편지를	-11.5476
▁자사가	-11.5476
▁넘는다	-11.5476
▁퍼포먼스를	-11.5476
▁미사	-11.548
▁데서	-11.5481
▁국가와	-11.5482
단계로	-11.5482
었는지	-11.5483
지역으로	-11.5483
▁중세	-11.5483
공대	-11.5485
즈를	-11.5486
우기	-11.5486
▁바가	-11.5486
▁개방형	-11.5487
▁무선충전	-11.5487
심판	-11.5488
고교	-11.5489
창조	-11.5489
▁해법	-11.5489
▁정책의	-11.5489
▁금융위원장	-11.5489
▁펼친다	-11.5489
▁싸움을	-11.5489
▁느끼게	-11.549
스마트폰	-11.549
권력	-11.549
▁노린	-11.549
▁얹	-11.5491
▁산업이	-11.5492
▁2015.03.2	-11.5493
▁그치지	-11.5494
작을	-11.5494
▁이야기는	-11.5495
▁영세	-11.5496
▁먹기	-11.5497
PE	-11.5498
▁스카	-11.5499
미아	-11.5501
▁장려	-11.5502
▁마련돼	-11.5502
▁공급이	-11.5502
▁딥러닝	-11.5503
▁프레스센터에서	-11.5503
▁인준	-11.5505
▁학위를	-11.5506
▁지우	-11.5506
▁보답	-11.5506
▁만들어낸	-11.5508
▁인제	-11.5509
▁이용하고	-11.5509
▁사이언스	-11.551
재현	-11.551
▁나뉘	-11.551
▁펀	-11.5511
1.8	-11.5511
?</	-11.5512
청구	-11.5513
▁엘리베이터	-11.5513
▁몬스터를	-11.5513
셈	-11.5514
▁계속될	-11.5515
설명회	-11.5516
▁심사위원	-11.5516
크리	-11.5516
▁제품인	-11.5517
▁선물세트	-11.5519
충전	-11.5519
▁영업이익이	-11.552
▁노원구	-11.552
▁마라톤	-11.5521
국인	-11.5521
▁발상	-11.5522
▁경제민주화	-11.5523
▁안정을	-11.5524
▁받던	-11.5525
▁희망하는	-11.5525
▁암흑	-11.5527
TM	-11.5527
▁찾아가는	-11.5527
▁얻었	-11.5527
촘	-11.5528
벼	-11.5533
▁연결되는	-11.5534
여야	-11.5535
▁슬픔	-11.5535
▁유럽연합	-11.5535
▁차지한다	-11.5535
르크	-11.5536
▁재개발	-11.5537
▁맞다	-11.5538
추천	-11.5538
▁전임	-11.554
LO	-11.5541
▁정진	-11.5542
설을	-11.5544
▁비무장지대	-11.5544
방에	-11.5545
내려	-11.5546
▁중동호흡기증후군	-11.5546
▁리서치	-11.5546
TT	-11.5548
▁절차가	-11.555
▁구현할	-11.555
▁조카	-11.5551
▁주의가	-11.5552
공간을	-11.5553
▁수감	-11.5553
wa	-11.5554
▁점유율이	-11.5555
▁제출했다	-11.5555
▁다카	-11.5555
▁쓰여	-11.5556
▁터미널	-11.5556
▁금융위	-11.5557
▁합의에	-11.5557
값이	-11.5558
▁판로	-11.5559
▁야권의	-11.556
있고	-11.5561
개와	-11.5563
▁목표주가	-11.5564
동향	-11.5565
▁공시지원금	-11.5566
▁산업계	-11.5567
▁실사	-11.5567
▁간단히	-11.5568
▁시민들에게	-11.5568
4321	-11.5568
▁서울뉴시스이종철	-11.5569
▁서초	-11.557
즈가	-11.557
▁방산	-11.557
▁업체들은	-11.5571
▁신분으로	-11.5573
▁밝혔	-11.5573
▁해보	-11.5574
▁현실이	-11.5574
▁장미	-11.5574
플러	-11.5577
▁나가야	-11.5577
▁대책이	-11.5578
▁만나고	-11.5578
▁대권	-11.5579
▁만인	-11.5579
▁애초에	-11.558
쿤	-11.558
▁전철	-11.5581
▁빅데이터를	-11.5582
▁혐오	-11.5582
▁대부분을	-11.5582
조치를	-11.5582
▁미드	-11.5583
▁실종자	-11.5584
▁윤동진	-11.5586
▁자치구	-11.5586
▁피어	-11.5587
▁오로지	-11.5589
▁조준	-11.559
▁가입할	-11.5591
▁시청률	-11.5591
대책본부	-11.5591
▁쌓은	-11.5592
▁후원금	-11.5592
세기에	-11.5592
▁연예	-11.5593
▁다뤄	-11.5593
▁가늠	-11.5593
▁폭발적인	-11.5593
분리	-11.5593
▁강좌	-11.5594
멧	-11.5595
ree	-11.5595
▁결과다	-11.5595
▁업체들의	-11.5597
▁김세	-11.5597
▁주의해야	-11.5598
넣	-11.5598
▁실질	-11.5602
▁코미디	-11.5602
▁레오	-11.5603
▁세일	-11.5603
▁알아야	-11.5604
▁장기화	-11.5605
▁자본시장	-11.5606
▁중소기업의	-11.5607
▁운반	-11.5607
▁겨냥해	-11.5608
슬러	-11.5608
▁한양대	-11.5609
▁도청	-11.561
층으로	-11.561
▁부분이다	-11.561
▁접촉을	-11.5612
▁앓	-11.5612
▁정부도	-11.5613
아서	-11.5614
qu	-11.5615
속에서	-11.5615
▁많으	-11.5615
[...]
